{
  "version": "1.0",
  "truncation": null,
  "padding": null,
  "added_tokens": [
    {
      "id": 0,
      "content": "[UNK]",
      "single_word": false,
      "lstrip": false,
      "rstrip": false,
      "normalized": false,
      "special": true
    },
    {
      "id": 1,
      "content": "[CLS]",
      "single_word": false,
      "lstrip": false,
      "rstrip": false,
      "normalized": false,
      "special": true
    },
    {
      "id": 2,
      "content": "[SEP]",
      "single_word": false,
      "lstrip": false,
      "rstrip": false,
      "normalized": false,
      "special": true
    },
    {
      "id": 3,
      "content": "[PAD]",
      "single_word": false,
      "lstrip": false,
      "rstrip": false,
      "normalized": false,
      "special": true
    },
    {
      "id": 4,
      "content": "[MASK]",
      "single_word": false,
      "lstrip": false,
      "rstrip": false,
      "normalized": false,
      "special": true
    }
  ],
  "normalizer": null,
  "pre_tokenizer": {
    "type": "ByteLevel",
    "add_prefix_space": false,
    "trim_offsets": true,
    "use_regex": true
  },
  "post_processor": null,
  "decoder": {
    "type": "ByteLevel",
    "add_prefix_space": true,
    "trim_offsets": true,
    "use_regex": true
  },
  "model": {
    "type": "BPE",
    "dropout": null,
    "unk_token": "[UNK]",
    "continuing_subword_prefix": null,
    "end_of_word_suffix": null,
    "fuse_unk": false,
    "byte_fallback": false,
    "ignore_merges": false,
    "vocab": {
      "[UNK]": 0,
      "[CLS]": 1,
      "[SEP]": 2,
      "[PAD]": 3,
      "[MASK]": 4,
      "!": 5,
      "%": 6,
      "&": 7,
      "(": 8,
      ")": 9,
      "*": 10,
      ",": 11,
      "-": 12,
      ".": 13,
      "/": 14,
      "0": 15,
      "1": 16,
      "2": 17,
      "3": 18,
      "4": 19,
      "5": 20,
      "6": 21,
      "7": 22,
      "8": 23,
      "9": 24,
      ":": 25,
      ";": 26,
      "=": 27,
      "?": 28,
      "@": 29,
      "A": 30,
      "B": 31,
      "C": 32,
      "D": 33,
      "E": 34,
      "F": 35,
      "G": 36,
      "H": 37,
      "I": 38,
      "J": 39,
      "K": 40,
      "L": 41,
      "M": 42,
      "N": 43,
      "O": 44,
      "P": 45,
      "Q": 46,
      "R": 47,
      "S": 48,
      "T": 49,
      "U": 50,
      "V": 51,
      "W": 52,
      "X": 53,
      "Y": 54,
      "Z": 55,
      "[": 56,
      "]": 57,
      "a": 58,
      "b": 59,
      "c": 60,
      "d": 61,
      "e": 62,
      "f": 63,
      "g": 64,
      "h": 65,
      "i": 66,
      "j": 67,
      "k": 68,
      "l": 69,
      "m": 70,
      "n": 71,
      "o": 72,
      "p": 73,
      "q": 74,
      "r": 75,
      "s": 76,
      "t": 77,
      "u": 78,
      "v": 79,
      "w": 80,
      "x": 81,
      "y": 82,
      "z": 83,
      "{": 84,
      "|": 85,
      "}": 86,
      "¡": 87,
      "¢": 88,
      "£": 89,
      "¤": 90,
      "§": 91,
      "¨": 92,
      "©": 93,
      "ª": 94,
      "¯": 95,
      "±": 96,
      "²": 97,
      "³": 98,
      "´": 99,
      "µ": 100,
      "º": 101,
      "¼": 102,
      "¿": 103,
      "Â": 104,
      "Ã": 105,
      "â": 106,
      "ð": 107,
      "ĉ": 108,
      "Ċ": 109,
      "Ġ": 110,
      "Ģ": 111,
      "ģ": 112,
      "ħ": 113,
      "ī": 114,
      "į": 115,
      "ı": 116,
      "ĵ": 117,
      "Ķ": 118,
      "ĺ": 119,
      "Ļ": 120,
      "ļ": 121,
      "ľ": 122,
      "Ŀ": 123,
      "ł": 124,
      "Ń": 125,
      "de": 126,
      "en": 127,
      "Ġde": 128,
      "Ġl": 129,
      "Ġp": 130,
      "es": 131,
      "ci": 132,
      "er": 133,
      "os": 134,
      "Ġla": 135,
      "Ġs": 136,
      "Ġc": 137,
      "Ġa": 138,
      "ar": 139,
      "on": 140,
      "Ã³": 141,
      "âĢ": 142,
      "ti": 143,
      "ta": 144,
      "or": 145,
      "ue": 146,
      "Ġe": 147,
      "ÃŃ": 148,
      "te": 149,
      "ca": 150,
      "is": 151,
      "un": 152,
      "re": 153,
      "da": 154,
      "to": 155,
      "Ã³n": 156,
      "Ġen": 157,
      "que": 158,
      "Ġes": 159,
      "al": 160,
      "in": 161,
      "Ġm": 162,
      "ra": 163,
      "do": 164,
      "Ġque": 165,
      "Ġel": 166,
      "ciÃ³n": 167,
      "Ġy": 168,
      "ĠâĢ": 169,
      "ÃŃa": 170,
      "âĢĿ": 171,
      "Ġn": 172,
      "ĠâĢľ": 173,
      "an": 174,
      "Ġf": 175,
      "ica": 176,
      "Ġun": 177,
      "Ġcon": 178,
      "ro": 179,
      "Ã¡": 180,
      "as": 181,
      "Ġh": 182,
      "mo": 183,
      "Ġse": 184,
      "il": 185,
      "Ã©": 186,
      "ol": 187,
      "men": 188,
      "di": 189,
      "Ġre": 190,
      "Ġdel": 191,
      "tu": 192,
      "Ġsu": 193,
      "Ġin": 194,
      "aciÃ³n": 195,
      "Ġo": 196,
      "tra": 197,
      "ien": 198,
      "dad": 199,
      "am": 200,
      "Ġco": 201,
      "le": 202,
      "ilos": 203,
      "co": 204,
      "Ġuna": 205,
      "ri": 206,
      "ĠE": 207,
      "of": 208,
      "ter": 209,
      "Ġpar": 210,
      "Ġpor": 211,
      "Ġno": 212,
      "ec": 213,
      "lo": 214,
      "cion": 215,
      "Ġal": 216,
      "Ġv": 217,
      "ib": 218,
      "mp": 219,
      "cia": 220,
      "Ġpro": 221,
      "ilosof": 222,
      "mente": 223,
      "ĠA": 224,
      "ma": 225,
      "Ġlos": 226,
      "ul": 227,
      "tin": 228,
      "res": 229,
      "tica": 230,
      "ĠL": 231,
      "idad": 232,
      "ilosofÃŃa": 233,
      "ide": 234,
      "Ġlas": 235,
      "ig": 236,
      "Ġha": 237,
      "Ġd": 238,
      "tor": 239,
      "ĠS": 240,
      "us": 241,
      "ismo": 242,
      "Ġcomo": 243,
      "Ġ1": 244,
      "ten": 245,
      "el": 246,
      "ĠfilosofÃŃa": 247,
      "ĠC": 248,
      "Ġex": 249,
      "qu": 250,
      "Ġto": 251,
      "ia": 252,
      "Ġdes": 253,
      "Ġso": 254,
      "tos": 255,
      "iz": 256,
      "Ġcu": 257,
      "Ġlo": 258,
      "Ġtra": 259,
      "cu": 260,
      "Ġte": 261,
      "ista": 262,
      "mb": 263,
      "ce": 264,
      "ĠP": 265,
      "iber": 266,
      "ĠM": 267,
      "Ã¡s": 268,
      "..": 269,
      "og": 270,
      "ens": 271,
      "ab": 272,
      "fi": 273,
      "ican": 274,
      "Ġpara": 275,
      "ciones": 276,
      "Ãº": 277,
      "ĠLa": 278,
      "tr": 279,
      "Ġb": 280,
      "Ġesta": 281,
      "iento": 282,
      "Ġliber": 283,
      "Ġan": 284,
      "âĢĿ,": 285,
      "Ġdi": 286,
      "tar": 287,
      "tan": 288,
      "erican": 289,
      "la": 290,
      "Ġpo": 291,
      "Ġ(": 292,
      "tino": 293,
      "va": 294,
      "tal": 295,
      "âĢĿ.": 296,
      "ues": 297,
      "io": 298,
      "iÃ³n": 299,
      "gen": 300,
      "tes": 301,
      "Ġper": 302,
      "tro": 303,
      "olog": 304,
      "ĠD": 305,
      "ch": 306,
      "Ã³g": 307,
      "Ġser": 308,
      "cien": 309,
      "american": 310,
      "ĠmÃ¡s": 311,
      "den": 312,
      "ologÃŃa": 313,
      "Ġi": 314,
      "se": 315,
      "dos": 316,
      "Ġmo": 317,
      "tinoamerican": 318,
      "ĠI": 319,
      "ada": 320,
      "Ġhis": 321,
      "Ġdis": 322,
      "era": 323,
      "Ġ19": 324,
      "min": 325,
      "Ġpens": 326,
      "cial": 327,
      "Ġsi": 328,
      "Ã©r": 329,
      "ĠliberaciÃ³n": 330,
      "go": 331,
      "Ġcons": 332,
      "ble": 333,
      "Ġpos": 334,
      "ĠEs": 335,
      "iv": 336,
      "Ġme": 337,
      "tura": 338,
      "Ġinter": 339,
      "Ġlatinoamerican": 340,
      "Ġexp": 341,
      "ico": 342,
      "Ġpue": 343,
      "ÃŃtica": 344,
      "Ġsin": 345,
      "ara": 346,
      "Ġide": 347,
      "gun": 348,
      "fica": 349,
      "ĠF": 350,
      "Ġpre": 351,
      "Ã±": 352,
      "ĠH": 353,
      "Ġac": 354,
      "ado": 355,
      "Ġeste": 356,
      "du": 357,
      "vi": 358,
      "ba": 359,
      "Ġcr": 360,
      "Ġap": 361,
      "ĠEn": 362,
      "mi": 363,
      "Ġpol": 364,
      "bre": 365,
      "Ġpp": 366,
      "Ġreal": 367,
      "cional": 368,
      "man": 369,
      "pul": 370,
      "tico": 371,
      "tre": 372,
      "Ġimp": 373,
      "ĠR": 374,
      "ĠB": 375,
      "Ã³gica": 376,
      "dor": 377,
      "je": 378,
      "ĠEl": 379,
      "Ġg": 380,
      "Ġprop": 381,
      "...": 382,
      "arx": 383,
      "Ã©n": 384,
      "con": 385,
      "eg": 386,
      "mos": 387,
      "tÃ³": 388,
      "Ġ2": 389,
      "Ġas": 390,
      "vo": 391,
      "amiento": 392,
      "ente": 393,
      "Ġob": 394,
      "ĠT": 395,
      "cep": 396,
      "Ġres": 397,
      "Ã¡n": 398,
      "so": 399,
      "der": 400,
      "Ġca": 401,
      "cer": 402,
      "Ġpopul": 403,
      "ĠG": 404,
      "ida": 405,
      "ĠN": 406,
      "Ġmu": 407,
      "Ġci": 408,
      "ir": 409,
      "ante": 410,
      "des": 411,
      "Ġsus": 412,
      "Ġqu": 413,
      "Ġau": 414,
      "Ġti": 415,
      "miento": 416,
      "ĠÃ©": 417,
      "Ġcl": 418,
      "Ġ197": 419,
      "ces": 420,
      "Ġt": 421,
      "Ġop": 422,
      "Ġref": 423,
      "Ġhistor": 424,
      "orÃŃa": 425,
      "tas": 426,
      "Ġpri": 427,
      "encia": 428,
      "cis": 429,
      "Ġsobre": 430,
      "Ġproble": 431,
      "ando": 432,
      "Ã©rica": 433,
      "ers": 434,
      "Ġmis": 435,
      "tual": 436,
      "li": 437,
      "Ġcomp": 438,
      "Ġfun": 439,
      "Ġlatinoamericana": 440,
      "gu": 441,
      "tiva": 442,
      "ĠAm": 443,
      "Ġsocial": 444,
      "cl": 445,
      "los": 446,
      "ios": 447,
      "Ġj": 448,
      "Ġparti": 449,
      "cur": 450,
      "car": 451,
      "ero": 452,
      "Ġtan": 453,
      "Ãºn": 454,
      "Ġesp": 455,
      "ran": 456,
      "ier": 457,
      "uss": 458,
      "Ġentre": 459,
      "Ġest": 460,
      "za": 461,
      "titu": 462,
      "teg": 463,
      "Ġsig": 464,
      "Ġar": 465,
      "Ġpensamiento": 466,
      "esti": 467,
      "tina": 468,
      "na": 469,
      "enden": 470,
      "ÃŃs": 471,
      "po": 472,
      "lica": 473,
      "ea": 474,
      "Ġtoda": 475,
      "baj": 476,
      "Ġtodo": 477,
      "Ġmismo": 478,
      "ilosÃ³": 479,
      "ĠAmÃ©rica": 480,
      "Ġor": 481,
      "Ġpl": 482,
      "cias": 483,
      "Ġsino": 484,
      "Ġnues": 485,
      "orm": 486,
      "Ġhab": 487,
      "Ġconcep": 488,
      "tru": 489,
      "taciÃ³n": 490,
      "Ġtrabaj": 491,
      "Ġma": 492,
      "Ġdesde": 493,
      "Ġprim": 494,
      "cos": 495,
      "cul": 496,
      "Ġpuede": 497,
      "Ã³s": 498,
      "Ġsup": 499,
      "idem": 500,
      "ciencia": 501,
      "pec": 502,
      "âĢĶ": 503,
      "Ġna": 504,
      "cio": 505,
      "ĠhistÃ³": 506,
      "Ġdiscur": 507,
      "Ġparte": 508,
      "iste": 509,
      "ĠfilosÃ³": 510,
      "mbre": 511,
      "be": 512,
      "Ġra": 513,
      "ctor": 514,
      "enti": 515,
      "ion": 516,
      "Ġu": 517,
      "Ġhistoria": 518,
      "mento": 519,
      "cciÃ³n": 520,
      "ctica": 521,
      "Ã³lo": 522,
      "Ġmedi": 523,
      "ussel": 524,
      "unto": 525,
      "enos": 526,
      "Ġmarx": 527,
      "rica": 528,
      "ĠAr": 529,
      "rÃ¡": 530,
      "Ġposib": 531,
      "ĠO": 532,
      "Ġho": 533,
      "Â¿": 534,
      "quÃŃ": 535,
      "ador": 536,
      "Ġtrata": 537,
      "iciÃ³n": 538,
      "ral": 539,
      "one": 540,
      "ora": 541,
      "eces": 542,
      "ĠpolÃŃtica": 543,
      ").": 544,
      "Ġpres": 545,
      "Ġab": 546,
      "olu": 547,
      "Ġrev": 548,
      "ior": 549,
      "Ġcual": 550,
      "ĠDussel": 551,
      "ĠU": 552,
      "no": 553,
      "Ġ[": 554,
      "ren": 555,
      "ĠIb": 556,
      "edad": 557,
      "Ġdep": 558,
      "Ġsub": 559,
      "endencia": 560,
      "ĠIbidem": 561,
      "me": 562,
      "ru": 563,
      "ĠSe": 564,
      "La": 565,
      "Ġson": 566,
      "Ġcul": 567,
      "ĠestÃ¡": 568,
      "can": 569,
      "Ġya": 570,
      "Ġproblema": 571,
      "Ġlu": 572,
      "Ġdiscurso": 573,
      "ial": 574,
      "iÃ©n": 575,
      "Ġsenti": 576,
      "rol": 577,
      "cri": 578,
      "cir": 579,
      "tiv": 580,
      "Ġpensar": 581,
      "arrol": 582,
      "blo": 583,
      "Ġalgun": 584,
      "tros": 585,
      "),": 586,
      "emp": 587,
      "ario": 588,
      "Ġver": 589,
      "Ġcas": 590,
      "das": 591,
      "Ã¡l": 592,
      "uer": 593,
      "Ã³gico": 594,
      "tural": 595,
      "pa": 596,
      "pre": 597,
      "zar": 598,
      "Ġdo": 599,
      "Ġtanto": 600,
      "Ġman": 601,
      "Ġnue": 602,
      "mas": 603,
      "Ġ3": 604,
      "ĠteologÃŃa": 605,
      "isti": 606,
      "fir": 607,
      "Ġbien": 608,
      "Ġle": 609,
      "Ġpas": 610,
      "ÃŃtico": 611,
      "rico": 612,
      "Ġcuesti": 613,
      "Ġconside": 614,
      "Ġrealidad": 615,
      "Ġcam": 616,
      "istas": 617,
      "Ġsentido": 618,
      "undo": 619,
      "xis": 620,
      "Ġda": 621,
      "Ġsoci": 622,
      "rÃŃa": 623,
      "ĠJ": 624,
      "ĠPor": 625,
      "ĠcrÃŃtica": 626,
      "Ġcom": 627,
      "Ġfunda": 628,
      "gar": 629,
      "Ġten": 630,
      "Ġneces": 631,
      "Ġsector": 632,
      "olÃ³gica": 633,
      "ÃŃn": 634,
      "ivers": 635,
      "les": 636,
      "Ġpa": 637,
      "ano": 638,
      "Ġmisma": 639,
      "eo": 640,
      "Ġautor": 641,
      "ido": 642,
      "mÃ¡": 643,
      "ilÃ³s": 644,
      "ilÃ³sof": 645,
      "Ġlle": 646,
      "El": 647,
      "dica": 648,
      "ga": 649,
      "Ġcien": 650,
      "Ġhay": 651,
      "Ġta": 652,
      "iones": 653,
      "Ġclas": 654,
      "arse": 655,
      "onto": 656,
      "Ġrep": 657,
      "Ġpero": 658,
      "cha": 659,
      "Ġrel": 660,
      "ana": 661,
      "ece": 662,
      "isis": 663,
      "ĠnÃº": 664,
      "ĠfilÃ³sof": 665,
      "Ġpunto": 666,
      "Ġcontra": 667,
      "lÃ³gica": 668,
      "ĠaquÃŃ": 669,
      "ĠÂ¿": 670,
      "tado": 671,
      "Ġporque": 672,
      "Ãºl": 673,
      "ĠRo": 674,
      "ĠnÃºm": 675,
      "ene": 676,
      "Ġins": 677,
      "Ġhombre": 678,
      "Ġdependencia": 679,
      "ve": 680,
      "todo": 681,
      "raxis": 682,
      "Ġotra": 683,
      "fico": 684,
      "Ġinterpre": 685,
      "ceso": 686,
      "alÃ©": 687,
      "aliz": 688,
      "truc": 689,
      "Ġafir": 690,
      "Ġtex": 691,
      "...]": 692,
      "ĠsÃ³lo": 693,
      "tivo": 694,
      "log": 695,
      "Ġtrabajo": 696,
      "ĠideologÃŃa": 697,
      "Ãºlti": 698,
      "ĠCon": 699,
      "Ġexpres": 700,
      "Ġcier": 701,
      "mar": 702,
      "ver": 703,
      "ĠaÃ±": 704,
      "lec": 705,
      "Ġcap": 706,
      "ĠNo": 707,
      "ito": 708,
      "ĠV": 709,
      "ĠY": 710,
      "Ġter": 711,
      "Ġgen": 712,
      "Ġpu": 713,
      "Ġmuy": 714,
      "Ġdecir": 715,
      "Ã©s": 716,
      "Ġinte": 717,
      "ni": 718,
      "tamente": 719,
      "Ġdesarrol": 720,
      "Ġdebe": 721,
      "âĢĻ": 722,
      "Ġni": 723,
      "lex": 724,
      "fin": 725,
      "ez": 726,
      "enta": 727,
      "Ġprodu": 728,
      "Ġcristi": 729,
      "Ġnuestra": 730,
      "Ã¡lisis": 731,
      "rg": 732,
      "Ġfilosof": 733,
      "ech": 734,
      "ĠAl": 735,
      "Ġdif": 736,
      "uel": 737,
      "Ġesto": 738,
      "ilidad": 739,
      "Ġdos": 740,
      "cre": 741,
      "ie": 742,
      "iendo": 743,
      "Ġhu": 744,
      "terior": 745,
      "Ġlatinoamericano": 746,
      "Ġconcepto": 747,
      "mentos": 748,
      "Ġproceso": 749,
      "ĠLatina": 750,
      "Ġonto": 751,
      "izaciÃ³n": 752,
      "Ġapar": 753,
      "jeto": 754,
      "mica": 755,
      "cip": 756,
      "Ġtamb": 757,
      "lar": 758,
      "oci": 759,
      "tÃŃ": 760,
      "Ġad": 761,
      "onde": 762,
      "amente": 763,
      "gÃºn": 764,
      "ĠanÃ¡lisis": 765,
      "Ġpopulista": 766,
      "Ġreflex": 767,
      "cter": 768,
      "asta": 769,
      "Ġtotal": 770,
      "Ġdistin": 771,
      "lectual": 772,
      "ĠtambiÃ©n": 773,
      "ĠÃºlti": 774,
      "ĠâĢĺ": 775,
      "Ġconciencia": 776,
      "Ġmodo": 777,
      "En": 778,
      "Ġden": 779,
      "Ġespe": 780,
      "zo": 781,
      "Ġtal": 782,
      "Ġpr": 783,
      "tudi": 784,
      "gentina": 785,
      "Ġconstitu": 786,
      "ĠFilosofÃŃa": 787,
      "ĠfilosÃ³fica": 788,
      "Ġnacional": 789,
      "Es": 790,
      "lÃŃ": 791,
      "Ġpraxis": 792,
      "ĠSal": 793,
      "mÃ¡tica": 794,
      "Ġfilosofar": 795,
      "Ġcre": 796,
      "Ġestruc": 797,
      "Ġestas": 798,
      "Ġmuch": 799,
      "Ġconsidera": 800,
      "logÃŃa": 801,
      "endo": 802,
      "Ġform": 803,
      "Ã©rmin": 804,
      "ivel": 805,
      "ĠtÃ©rmin": 806,
      "ector": 807,
      "Ġinteres": 808,
      "Ġintelectual": 809,
      "ber": 810,
      "Ã¼": 811,
      "Ġcor": 812,
      "Ġ[...]": 813,
      "uenos": 814,
      "cidad": 815,
      "Ġamb": 816,
      "Ġnivel": 817,
      "ĠAi": 818,
      "Ġsitu": 819,
      "ĠhistÃ³rica": 820,
      ".,": 821,
      "ns": 822,
      "Ġhace": 823,
      "ĠDe": 824,
      "Ġmomento": 825,
      "Ġpueblo": 826,
      "ĠcuestiÃ³n": 827,
      "alÃ©ctica": 828,
      "ĠAires": 829,
      "iza": 830,
      "ĠteorÃŃa": 831,
      "Ġrefer": 832,
      "Ġcaso": 833,
      "olÃ³gico": 834,
      "Ġinten": 835,
      "uro": 836,
      "Ġnos": 837,
      "Ġotro": 838,
      "adas": 839,
      "Ġcab": 840,
      "ortan": 841,
      "ras": 842,
      "mental": 843,
      "iene": 844,
      "abor": 845,
      "Ġsigu": 846,
      "Ġmarxismo": 847,
      "ac": 848,
      "ton": 849,
      "aria": 850,
      "orma": 851,
      "alab": 852,
      "ĠEsta": 853,
      "ĠUn": 854,
      "ima": 855,
      "ital": 856,
      "istema": 857,
      "ĠnociÃ³n": 858,
      "Ġval": 859,
      "Ġhacer": 860,
      "Ġpermi": 861,
      "Ġtiene": 862,
      "Ġpartir": 863,
      "ĠOr": 864,
      "ĠrelaciÃ³n": 865,
      "entes": 866,
      "Ġcol": 867,
      "tad": 868,
      "Ġemb": 869,
      "isten": 870,
      "Ġpreten": 871,
      "Ġorig": 872,
      "ĠhistÃ³rico": 873,
      "Ġrevolu": 874,
      "rup": 875,
      "Ġcultura": 876,
      "ĠK": 877,
      "ĠsÃŃ": 878,
      "quel": 879,
      "hora": 880,
      "Ġplante": 881,
      "ĠRoig": 882,
      "ven": 883,
      "argo": 884,
      "ĠteÃ³": 885,
      "clus": 886,
      "...,": 887,
      "Ġgener": 888,
      "Ġcara": 889,
      "Ġenf": 890,
      "Ġestudi": 891,
      "Ġfin": 892,
      "Ġembargo": 893,
      "Ġcar": 894,
      "ĠRe": 895,
      "ĠGu": 896,
      "âĢĶâĢĶ": 897,
      "ĠfilÃ³sofo": 898,
      "ger": 899,
      "th": 900,
      "Ġestos": 901,
      "Ġcondi": 902,
      "ĠMÃ©": 903,
      "Ġpod": 904,
      "uesta": 905,
      "idades": 906,
      "Ġprimera": 907,
      "Ġaquel": 908,
      "Ġecon": 909,
      "Ġesa": 910,
      "Ġese": 911,
      "Ġimportan": 912,
      "Ġlugar": 913,
      "ser": 914,
      "Ġhan": 915,
      "ĠMarx": 916,
      "Ġhuman": 917,
      "im": 918,
      "ales": 919,
      "ĠseÃ±": 920,
      "ĠSin": 921,
      "van": 922,
      "ino": 923,
      "Ġmenos": 924,
      "Ġconcre": 925,
      "Ġotros": 926,
      "ay": 927,
      "xico": 928,
      "Ġri": 929,
      "Ġvez": 930,
      "ĠBuenos": 931,
      "Ġjus": 932,
      "pecto": 933,
      "Ġcaracter": 934,
      "vÃŃa": 935,
      "Ġdefin": 936,
      "Ġmar": 937,
      "tifi": 938,
      "Ġsegun": 939,
      "ĠPero": 940,
      "uy": 941,
      "Ġprimer": 942,
      "Ġalgunos": 943,
      "Ġdomin": 944,
      "Ġsistema": 945,
      "inas": 946,
      "Ġconte": 947,
      "Ġalter": 948,
      "igÃ¼": 949,
      "ĠpolÃŃtico": 950,
      "ĠasÃŃ": 951,
      "Ġresp": 952,
      "cen": 953,
      "mer": 954,
      "Ġcri": 955,
      "ĠâĢĶ": 956,
      "Ġfu": 957,
      "ĠCar": 958,
      "ĠArgentina": 959,
      "Ġsubs": 960,
      "Ġneg": 961,
      "anto": 962,
      "Ġinteg": 963,
      "Ġprof": 964,
      "ĠreflexiÃ³n": 965,
      "ond": 966,
      "amb": 967,
      "Ġdiv": 968,
      "Ġposi": 969,
      "egel": 970,
      "Ġobra": 971,
      "ĠfilosÃ³fico": 972,
      "Ġcuando": 973,
      "ĠPara": 974,
      "ĠÃ©s": 975,
      "ĠMÃ©xico": 976,
      "filosofÃŃa": 977,
      "pol": 978,
      "tifica": 979,
      "Ġconf": 980,
      "Ġhech": 981,
      "Ġtodos": 982,
      "Ġposible": 983,
      "Ġsiguien": 984,
      "fec": 985,
      "Ġsab": 986,
      "Ġreto": 987,
      "Ġpopulismo": 988,
      "gua": 989,
      "empo": 990,
      "Ġpalab": 991,
      "osiciÃ³n": 992,
      "Ġsal": 993,
      "teorÃŃa": 994,
      "Ġmen": 995,
      "Ġmundo": 996,
      "Ġfen": 997,
      "ĠSan": 998,
      "ciente": 999,
      "Ġmay": 1000,
      "Ġtexto": 1001,
      "rar": 1002,
      "Ġlib": 1003,
      "Ġpon": 1004,
      "Ġencu": 1005,
      "Ġvar": 1006,
      "Ġvol": 1007,
      "ĠdialÃ©ctica": 1008,
      "tesis": 1009,
      "aciones": 1010,
      "rente": 1011,
      "Ġfuer": 1012,
      "izar": 1013,
      "Ġpoder": 1014,
      "Ġsociales": 1015,
      "ĠinterpretaciÃ³n": 1016,
      "ĠseÃ±al": 1017,
      "Ġsea": 1018,
      "Ġdu": 1019,
      "quier": 1020,
      "Ġtrans": 1021,
      "Ġautores": 1022,
      "dar": 1023,
      "pro": 1024,
      "Ġll": 1025,
      "Ġhasta": 1026,
      "ientos": 1027,
      "Ġexisten": 1028,
      "culo": 1029,
      "trar": 1030,
      "Ġperon": 1031,
      "gan": 1032,
      "erte": 1033,
      "izÃ¡": 1034,
      "ĠÃ©tica": 1035,
      "Ġsuper": 1036,
      "Ġclases": 1037,
      "jo": 1038,
      "ĠX": 1039,
      "encias": 1040,
      "raf": 1041,
      "Ġrela": 1042,
      "igu": 1043,
      "Ġmedida": 1044,
      "Ġdentro": 1045,
      "ex": 1046,
      "par": 1047,
      "viene": 1048,
      "Ġtar": 1049,
      "Ã³mo": 1050,
      "diciÃ³n": 1051,
      "ĠAn": 1052,
      "ĠAs": 1053,
      "ĠLo": 1054,
      "Ġcuanto": 1055,
      "cionalidad": 1056,
      "ĠfunciÃ³n": 1057,
      "19": 1058,
      "tri": 1059,
      "Ġ4": 1060,
      "tiz": 1061,
      "rez": 1062,
      "alidad": 1063,
      "ĠMar": 1064,
      "ĠDios": 1065,
      "Ġ20": 1066,
      "ĠTo": 1067,
      "Ġcateg": 1068,
      "Ġsigni": 1069,
      "Ġespecial": 1070,
      "yec": 1071,
      "Ġet": 1072,
      "turo": 1073,
      "ĠposiciÃ³n": 1074,
      "Ġauto": 1075,
      "Ġhistori": 1076,
      "Ġmarxista": 1077,
      "iversidad": 1078,
      "Ġestructura": 1079,
      "urop": 1080,
      "Ġorigin": 1081,
      "none": 1082,
      "ĠZ": 1083,
      "Ġpe": 1084,
      "Ġhe": 1085,
      "Ġbas": 1086,
      "Ġir": 1087,
      "Ġmovi": 1088,
      "Ġgran": 1089,
      "Ġpropia": 1090,
      "Ġargen": 1091,
      "ĠtodavÃŃa": 1092,
      "rÃ¡ctica": 1093,
      "cannone": 1094,
      "Ġsubsector": 1095,
      "blica": 1096,
      "Ġeurop": 1097,
      "Ġenten": 1098,
      "able": 1099,
      "Ġfundamental": 1100,
      "azar": 1101,
      "ena": 1102,
      "engua": 1103,
      "erial": 1104,
      "Ġep": 1105,
      "ĠBond": 1106,
      "ĠBondy": 1107,
      "10": 1108,
      "gos": 1109,
      "gres": 1110,
      "ias": 1111,
      "ĠÃ": 1112,
      "ores": 1113,
      "Ã©mica": 1114,
      "dida": 1115,
      "termin": 1116,
      "Ġva": 1117,
      "Ġanaliz": 1118,
      "ĠIn": 1119,
      "tega": 1120,
      "lÃŃci": 1121,
      "ĠsituaciÃ³n": 1122,
      "ados": 1123,
      "cor": 1124,
      "siÃ³n": 1125,
      "tis": 1126,
      "uego": 1127,
      "Ġmi": 1128,
      "Ġele": 1129,
      "anos": 1130,
      "Ġante": 1131,
      "ĠquÃ©": 1132,
      "cismo": 1133,
      "ĠSalazar": 1134,
      "Ġcabe": 1135,
      "bi": 1136,
      "ros": 1137,
      "val": 1138,
      "Ġnota": 1139,
      "ĠCu": 1140,
      "Ġactitu": 1141,
      "Ġpopular": 1142,
      "ĠÃ©l": 1143,
      "igÃ¼edad": 1144,
      "gger": 1145,
      "ĠQ": 1146,
      "Ġsurg": 1147,
      "mple": 1148,
      "idegger": 1149,
      "usch": 1150,
      "ĠOrtega": 1151,
      "Ġllam": 1152,
      "Ġindi": 1153,
      "Ġtiempo": 1154,
      "Ġpartida": 1155,
      "Ġnuevo": 1156,
      "Ġrepres": 1157,
      "pu": 1158,
      "ur": 1159,
      "Ġlengua": 1160,
      "Ġcen": 1161,
      "Ã³men": 1162,
      "tir": 1163,
      "taciones": 1164,
      "Ġello": 1165,
      "Ġelabor": 1166,
      "Ġfe": 1167,
      "Ġforma": 1168,
      "Ġvis": 1169,
      "ĠScannone": 1170,
      "ĠaÃ±os": 1171,
      "ĠÃºltimo": 1172,
      "ĠprÃ¡ctica": 1173,
      "ueblo": 1174,
      "Ã¡g": 1175,
      "Ġactual": 1176,
      "Ġnuestro": 1177,
      "Ġcapital": 1178,
      "Ġdifer": 1179,
      "ĠpodrÃŃa": 1180,
      "au": 1181,
      "Ġ5": 1182,
      "Ġdetermin": 1183,
      "ÃŃan": 1184,
      "Ġfrente": 1185,
      "Ġinf": 1186,
      "Ġdonde": 1187,
      "iberaciÃ³n": 1188,
      "ĠEste": 1189,
      "Ġiden": 1190,
      "ĠfenÃ³men": 1191,
      "ĠcategorÃŃa": 1192,
      "Ġade": 1193,
      "tiÃ©r": 1194,
      "ÃŃtu": 1195,
      "Ġnin": 1196,
      "ĠsegÃºn": 1197,
      "Ġanti": 1198,
      "ĠideolÃ³gica": 1199,
      "Ġrespecto": 1200,
      "Ġnueva": 1201,
      "Ġciencias": 1202,
      "Ġconstituy": 1203,
      "tiÃ©rrez": 1204,
      ".âĢĿ": 1205,
      "Ġtras": 1206,
      "Ġ196": 1207,
      "Ġinterior": 1208,
      "Ġapor": 1209,
      "Ġ1973": 1210,
      "empre": 1211,
      "Ġsociedad": 1212,
      "Ġhecho": 1213,
      "Ġsignifica": 1214,
      "II": 1215,
      "rens": 1216,
      "Ġcos": 1217,
      "Ġahora": 1218,
      "til": 1219,
      "Ġfue": 1220,
      "Ġrecon": 1221,
      "Ġsujeto": 1222,
      "iencia": 1223,
      "tando": 1224,
      "Ġpers": 1225,
      "Ġmetodo": 1226,
      "Ġgra": 1227,
      "Ġradica": 1228,
      "adora": 1229,
      "Ġcultural": 1230,
      "Ġcomun": 1231,
      "ĠKusch": 1232,
      "ĠeconÃ³": 1233,
      "Ġetc": 1234,
      "iva": 1235,
      "lÃ³gico": 1236,
      "ocu": 1237,
      "Ġuno": 1238,
      "Ġher": 1239,
      "ĠCf": 1240,
      "Ġexper": 1241,
      "Ġobser": 1242,
      "Ġposibilidad": 1243,
      "Ġsectores": 1244,
      "Ġclase": 1245,
      "ĠGutiÃ©rrez": 1246,
      "Ġlibro": 1247,
      "ĠZea": 1248,
      "ja": 1249,
      "mico": 1250,
      "mann": 1251,
      "Ġasu": 1252,
      "tivamente": 1253,
      "istemo": 1254,
      "Ġabs": 1255,
      "ĠcientÃŃ": 1256,
      "ocimiento": 1257,
      "fÃŃs": 1258,
      "lu": 1259,
      "Ġciencia": 1260,
      "Ġcada": 1261,
      "undi": 1262,
      "almente": 1263,
      "ĠCas": 1264,
      "Ġmeta": 1265,
      "ĠtÃ©rminos": 1266,
      "ĠUniversidad": 1267,
      "yecto": 1268,
      "por": 1269,
      "incip": 1270,
      "amos": 1271,
      "ĠFran": 1272,
      "Ġclar": 1273,
      "ĠpaÃŃs": 1274,
      "Ġtarea": 1275,
      "fuer": 1276,
      "las": 1277,
      "sa": 1278,
      "Ġam": 1279,
      "Ġescri": 1280,
      "Ġunivers": 1281,
      "ible": 1282,
      "cho": 1283,
      "Ġsiempre": 1284,
      "tividad": 1285,
      "Ġcuestion": 1286,
      "tonces": 1287,
      "ruptura": 1288,
      "Ġlenguaje": 1289,
      "rensiÃ³n": 1290,
      ".;": 1291,
      "icos": 1292,
      "vil": 1293,
      "Ġdecis": 1294,
      "Ġli": 1295,
      "Ġcontin": 1296,
      "Ġini": 1297,
      "ign": 1298,
      "usiÃ³n": 1299,
      "ĠserÃŃa": 1300,
      "ivo": 1301,
      "ĠHe": 1302,
      "ĠaÃ±o": 1303,
      "Ġ6": 1304,
      "Ġ7": 1305,
      "ĠÃ¡": 1306,
      "ĠlÃŃn": 1307,
      "Ġaun": 1308,
      "ĠmÃ©": 1309,
      "Ġind": 1310,
      "Ġimplica": 1311,
      "Ġtres": 1312,
      "Ġcomple": 1313,
      "Ġepistemo": 1314,
      "eci": 1315,
      "nos": 1316,
      "per": 1317,
      "âĢ¢": 1318,
      "unda": 1319,
      "Ġentonces": 1320,
      "Ġeso": 1321,
      "Ġesfuer": 1322,
      "Ġella": 1323,
      "mpor": 1324,
      "Ġpresente": 1325,
      "Ġlucha": 1326,
      "Ġprincip": 1327,
      "Ġvida": 1328,
      "ĠMundo": 1329,
      "uesto": 1330,
      "Ġprecis": 1331,
      "Ġpreocu": 1332,
      "Ġmani": 1333,
      "ĠsociologÃŃa": 1334,
      "imagen": 1335,
      "ĠXX": 1336,
      "Ġactitud": 1337,
      "op": 1338,
      "su": 1339,
      "Ġaca": 1340,
      "Ġavan": 1341,
      "tada": 1342,
      "top": 1343,
      "Ġhacia": 1344,
      "trop": 1345,
      "Ġcasi": 1346,
      "Ġrevolucion": 1347,
      "Ġencuen": 1348,
      "Ġperonismo": 1349,
      "ÃŃtulo": 1350,
      "his": 1351,
      "ĠLe": 1352,
      "ĠLos": 1353,
      "Ġclara": 1354,
      "Ġverdad": 1355,
      "Ġsaber": 1356,
      "Ġmayor": 1357,
      "ĠfenÃ³meno": 1358,
      "Ġexperiencia": 1359,
      "jor": 1360,
      "ĠcÃ³mo": 1361,
      "antes": 1362,
      "Ġtoma": 1363,
      "Ġsido": 1364,
      "Ġpueden": 1365,
      "ĠideolÃ³gico": 1366,
      "Ã±o": 1367,
      "Ġtrabajos": 1368,
      "Ġnecesidad": 1369,
      "Ġtermin": 1370,
      "ĠconsideraciÃ³n": 1371,
      "Ġpermite": 1372,
      "No": 1373,
      "cÃŃa": 1374,
      "pel": 1375,
      "ÃŃas": 1376,
      "rimi": 1377,
      "ĠexplÃŃci": 1378,
      "Ġtipo": 1379,
      "Ġju": 1380,
      "cto": 1381,
      "mis": 1382,
      "Ġacep": 1383,
      "dades": 1384,
      "ectura": 1385,
      "ĠCa": 1386,
      "qui": 1387,
      "Ġbu": 1388,
      "Ġ199": 1389,
      "Ġ1975": 1390,
      "ÃŃstica": 1391,
      "Ġotras": 1392,
      "Ġafirma": 1393,
      "Ġreferencia": 1394,
      "cluso": 1395,
      "ambiÃ©n": 1396,
      "ĠSantos": 1397,
      "Ġtransf": 1398,
      "Ġ200": 1399,
      "gra": 1400,
      "he": 1401,
      "iana": 1402,
      "pueblo": 1403,
      "tÃ©n": 1404,
      "ticos": 1405,
      "ticidad": 1406,
      "Ġparece": 1407,
      "ĠMe": 1408,
      "ograf": 1409,
      "ĠLatinoamerican": 1410,
      "Ġracionalidad": 1411,
      "Ġalgunas": 1412,
      "Ġaparece": 1413,
      "ĠtÃ©rmino": 1414,
      "lÃ¡": 1415,
      "mientos": 1416,
      "nte": 1417,
      "onte": 1418,
      "ink": 1419,
      "Ġconviene": 1420,
      "Ã©u": 1421,
      "ĠcrÃŃtico": 1422,
      "Ġ1974": 1423,
      "iere": 1424,
      "Ġtextos": 1425,
      "Ġposiciones": 1426,
      "Ġmovimiento": 1427,
      "ĠHeidegger": 1428,
      "topÃŃa": 1429,
      "cr": 1430,
      "ĠpÃ¡g": 1431,
      "Ġefec": 1432,
      "alla": 1433,
      "Ġalcan": 1434,
      "Ġcuenta": 1435,
      "Ġtema": 1436,
      "Ġpoco": 1437,
      "ĠIg": 1438,
      "Ġmejor": 1439,
      "Ġpregun": 1440,
      "ĠfilÃ³sofos": 1441,
      "Ġcontradi": 1442,
      "Ġafirm": 1443,
      "Ġmucho": 1444,
      "ĠteÃ³rica": 1445,
      "Ġintegra": 1446,
      "ĠÃī": 1447,
      "fÃŃsica": 1448,
      "ĠÃºn": 1449,
      "Ġtesis": 1450,
      "Ġfal": 1451,
      "elam": 1452,
      "iado": 1453,
      "trodu": 1454,
      "adores": 1455,
      "tivas": 1456,
      "Ġdesarrollo": 1457,
      "ĠproducciÃ³n": 1458,
      "Ġformul": 1459,
      "ĠCarlos": 1460,
      "Ġradical": 1461,
      "Ġamerican": 1462,
      "ĠmÃ©todo": 1463,
      "om": 1464,
      "Ġdeno": 1465,
      "ere": 1466,
      "ina": 1467,
      "Ġmos": 1468,
      "Ġellos": 1469,
      "uestra": 1470,
      "Ġaspec": 1471,
      "Ġobje": 1472,
      "ĠquizÃ¡": 1473,
      "ĠproblemÃ¡tica": 1474,
      "Ġcompren": 1475,
      "Ġestudio": 1476,
      "greso": 1477,
      "Ġaspectos": 1478,
      "eas": 1479,
      "ha": 1480,
      "jer": 1481,
      "smann": 1482,
      "um": 1483,
      "Ġlectura": 1484,
      "Ġqueda": 1485,
      "ili": 1486,
      "menÃ©u": 1487,
      "Ġdar": 1488,
      "Ġantrop": 1489,
      "tante": 1490,
      "Ġperman": 1491,
      "ĠHegel": 1492,
      "cista": 1493,
      "cluy": 1494,
      "ĠArturo": 1495,
      "ĠUna": 1496,
      "Ġcristianos": 1497,
      "Ġenfren": 1498,
      "mert": 1499,
      "Ġmencion": 1500,
      "Ġvarios": 1501,
      "Ġargentino": 1502,
      "inkelam": 1503,
      "Ġdenomin": 1504,
      "inkelammert": 1505,
      "var": 1506,
      "Ġera": 1507,
      "ende": 1508,
      "cil": 1509,
      "Ġev": 1510,
      "Ġviv": 1511,
      "ĠSi": 1512,
      "Ġcompro": 1513,
      "Ġcamb": 1514,
      "ĠambigÃ¼edad": 1515,
      "Ġenfo": 1516,
      "Ġsegunda": 1517,
      "ĠQu": 1518,
      "Ġesfuerzo": 1519,
      "12": 1520,
      "bri": 1521,
      "si": 1522,
      "ĠlÃŃ": 1523,
      "Ġpes": 1524,
      "Ġsos": 1525,
      "Ġestar": 1526,
      "Ġredu": 1527,
      "comp": 1528,
      "ĠallÃ¡": 1529,
      "ĠtradiciÃ³n": 1530,
      "Ġlatinoamericanos": 1531,
      "Ġimperial": 1532,
      "Ġpropio": 1533,
      "Ġpropuesta": 1534,
      "Ġlleva": 1535,
      "ĠontolÃ³gica": 1536,
      "Ġtotalidad": 1537,
      "Ġcondiciones": 1538,
      "Ġpalabra": 1539,
      "Ġelementos": 1540,
      "ĠpÃ¡ginas": 1541,
      "mÃ¡s": 1542,
      "vista": 1543,
      "Ġ9": 1544,
      "iles": 1545,
      "Ġinv": 1546,
      "terial": 1547,
      "Ġdescu": 1548,
      "ceden": 1549,
      "ĠHinkelammert": 1550,
      "...âĢĿ,": 1551,
      "Ġobjeto": 1552,
      "ĠNa": 1553,
      "desarrol": 1554,
      "Ġtodas": 1555,
      "cular": 1556,
      "Ġsupone": 1557,
      "Ġcuales": 1558,
      "Ġnecesario": 1559,
      "Ġrelig": 1560,
      "Ġcontex": 1561,
      "Ġespecialmente": 1562,
      "ĠhermenÃ©u": 1563,
      "at": 1564,
      "embre": 1565,
      "marx": 1566,
      "Ġ8": 1567,
      "erÃ³n": 1568,
      "Ġlar": 1569,
      "Ġenero": 1570,
      "Ã©tica": 1571,
      "Ġ17": 1572,
      "Ġestable": 1573,
      "Ġanterior": 1574,
      "Ġima": 1575,
      "Ġmomentos": 1576,
      "jemp": 1577,
      "ĠTambiÃ©n": 1578,
      "Ġcit": 1579,
      "ĠutopÃŃa": 1580,
      "Ġabier": 1581,
      "medi": 1582,
      "ĠJu": 1583,
      "Ġsegundo": 1584,
      "Ġsiguiente": 1585,
      "ĠÃ¡mb": 1586,
      "NA": 1587,
      "Se": 1588,
      "bo": 1589,
      "pon": 1590,
      "erse": 1591,
      "Ġeta": 1592,
      "Ġnada": 1593,
      "dido": 1594,
      "Ġintrodu": 1595,
      "Ġcomen": 1596,
      "Ġalgo": 1597,
      "toria": 1598,
      "Ġcuy": 1599,
      "ĠMan": 1600,
      "ĠEsto": 1601,
      "Ġideas": 1602,
      "ĠpolÃ©mica": 1603,
      "Ġquiere": 1604,
      "Ġmismos": 1605,
      "Ġnatural": 1606,
      "Ġdefini": 1607,
      "Ġasumi": 1608,
      "ografÃŃa": 1609,
      "ciden": 1610,
      "Ġsol": 1611,
      "Ġhi": 1612,
      "rique": 1613,
      "tera": 1614,
      "ecu": 1615,
      "mpl": 1616,
      "Ġproyecto": 1617,
      "ĠSer": 1618,
      "ĠPro": 1619,
      "ĠserÃ¡": 1620,
      "Ġexpli": 1621,
      "Ġexplica": 1622,
      "ĠHay": 1623,
      "usser": 1624,
      "Ġcampo": 1625,
      "ĠrevoluciÃ³n": 1626,
      "Ġfuera": 1627,
      "ĠAssmann": 1628,
      "13": 1629,
      "Ġruptura": 1630,
      "ort": 1631,
      "Ġejemp": 1632,
      "cada": 1633,
      "tenido": 1634,
      "Ġextra": 1635,
      "aba": 1636,
      "Ġantes": 1637,
      "Ġorgan": 1638,
      "ĠSegun": 1639,
      "Ġpura": 1640,
      "Ġimportancia": 1641,
      "Ġalteridad": 1642,
      "Ġcontinu": 1643,
      "ĠJuan": 1644,
      "CI": 1645,
      "cta": 1646,
      "omo": 1647,
      "Ġus": 1648,
      "err": 1649,
      "Ġsegu": 1650,
      "ĠLas": 1651,
      "Ġ10": 1652,
      "Ãºs": 1653,
      "Ġanal": 1654,
      "Ã±a": 1655,
      "Ġapun": 1656,
      "Ġrealiz": 1657,
      "ĠNue": 1658,
      "Ġproblemas": 1659,
      "Ġorden": 1660,
      "Ġmaterial": 1661,
      "Ġmanera": 1662,
      "Ġcomien": 1663,
      "ĠexpresiÃ³n": 1664,
      "Ġciertos": 1665,
      "Ġconcreta": 1666,
      "Ġsiguientes": 1667,
      "ĠpaÃŃses": 1668,
      "mporÃ¡n": 1669,
      "Ġpreocup": 1670,
      "Ġencuentra": 1671,
      "ĠÃ¡mbito": 1672,
      "col": 1673,
      "Ġluego": 1674,
      "erca": 1675,
      "ÃŃr": 1676,
      "unio": 1677,
      "Ġ18": 1678,
      "Ġdescri": 1679,
      "ĠPar": 1680,
      "dora": 1681,
      "Ġpopulistas": 1682,
      "Ġquien": 1683,
      "Ġreform": 1684,
      "ĠestÃ¡n": 1685,
      "Ġplano": 1686,
      "culta": 1687,
      "Ġrevel": 1688,
      "rupo": 1689,
      "tivos": 1690,
      "Ġnuev": 1691,
      "ĠcapÃŃtulo": 1692,
      "Ġpublica": 1693,
      "ĠontologÃŃa": 1694,
      "Ġinteresante": 1695,
      "ĠRevista": 1696,
      "puÃ©s": 1697,
      "ĠcategorÃŃas": 1698,
      "Ġcambio": 1699,
      "diles": 1700,
      "emos": 1701,
      "gue": 1702,
      "lan": 1703,
      "lig": 1704,
      "lante": 1705,
      "tÃ¡": 1706,
      "udi": 1707,
      "Ġesca": 1708,
      "Ġfac": 1709,
      "Ġconocimiento": 1710,
      "iente": 1711,
      "Ġexig": 1712,
      "Ġdimen": 1713,
      "egÃºn": 1714,
      "Ġoprimi": 1715,
      "ĠartÃŃ": 1716,
      "Ġcierto": 1717,
      "Ġretomar": 1718,
      "Ġrelaciones": 1719,
      "Ġningun": 1720,
      "Ġtrasc": 1721,
      "ĠNacional": 1722,
      "Ġcontexto": 1723,
      "cra": 1724,
      "ctico": 1725,
      "pi": 1726,
      "vaciÃ³n": 1727,
      "Ã³r": 1728,
      "ÃŃo": 1729,
      "ilidades": 1730,
      "ecer": 1731,
      "tinos": 1732,
      "ĠSu": 1733,
      "ficiente": 1734,
      "Ġbus": 1735,
      "talidad": 1736,
      "Ġsimple": 1737,
      "Ġrealiza": 1738,
      "ĠpropÃ³s": 1739,
      "ĠopciÃ³n": 1740,
      "Ġutil": 1741,
      "Ġpapel": 1742,
      "Ġespeci": 1743,
      "Ġaquellos": 1744,
      "Ġimportante": 1745,
      "Ġduda": 1746,
      "18": 1747,
      "fer": 1748,
      "ut": 1749,
      "zÃ³n": 1750,
      "Ġsa": 1751,
      "isiÃ³n": 1752,
      "rel": 1753,
      "Ġ15": 1754,
      "ĠteolÃ³gica": 1755,
      "tarse": 1756,
      "Ġservi": 1757,
      "Ġ198": 1758,
      "vierte": 1759,
      "Ġimpos": 1760,
      "Ġ25": 1761,
      "Ġresul": 1762,
      "ĠcomprensiÃ³n": 1763,
      "Ġconceptual": 1764,
      "Ġnecesaria": 1765,
      "Ġestructural": 1766,
      "ĠteÃ³rico": 1767,
      "Ġperspec": 1768,
      "ĠafirmaciÃ³n": 1769,
      "ĠSegundo": 1770,
      "ad": 1771,
      "vers": 1772,
      "Ġdej": 1773,
      "cido": 1774,
      "Ġmas": 1775,
      "uestos": 1776,
      "Ġmode": 1777,
      "Ġposterior": 1778,
      "ĠexposiciÃ³n": 1779,
      "vidu": 1780,
      "Ġcompar": 1781,
      "ĠArdiles": 1782,
      "Ġpresen": 1783,
      "Ġpresenta": 1784,
      "Ġcolon": 1785,
      "Ġdivers": 1786,
      "ĠÃ©ste": 1787,
      "Ġpalabras": 1788,
      "ĠlÃŃnea": 1789,
      "Ġaunque": 1790,
      "Ġclaramente": 1791,
      "ĠpropÃ³sito": 1792,
      "CA": 1793,
      "gin": 1794,
      "iano": 1795,
      "Ġdere": 1796,
      "Ġincluso": 1797,
      "Ġven": 1798,
      "fies": 1799,
      "uestas": 1800,
      "Ġdisc": 1801,
      "Ġcapa": 1802,
      "ĠautÃ©n": 1803,
      "Ġ1972": 1804,
      "Ġpasado": 1805,
      "eopol": 1806,
      "ĠideologÃŃas": 1807,
      "rgues": 1808,
      "Ġmuchos": 1809,
      "Ġintelectuales": 1810,
      "Ġniveles": 1811,
      "ĠdominaciÃ³n": 1812,
      "Ġretoma": 1813,
      "Ġconstituye": 1814,
      "ĠCasalla": 1815,
      "Ġclaro": 1816,
      "quiera": 1817,
      "11": 1818,
      "DE": 1819,
      "mul": 1820,
      "pos": 1821,
      "vinas": 1822,
      "eno": 1823,
      "ÃŃticos": 1824,
      "Ġmor": 1825,
      "anon": 1826,
      "Ġfra": 1827,
      "ĠLiberaciÃ³n": 1828,
      "Ġ13": 1829,
      "Ġlibertad": 1830,
      "vaciones": 1831,
      "ciendo": 1832,
      "Ġpueb": 1833,
      "Ġapro": 1834,
      "Ġnuestros": 1835,
      "Ġhaber": 1836,
      "Ġintento": 1837,
      "tificismo": 1838,
      "ĠeconÃ³mico": 1839,
      "ĠcientÃŃfica": 1840,
      "ĠlÃŃmi": 1841,
      "Ġinvesti": 1842,
      "ÃŃrculo": 1843,
      "cn": 1844,
      "ndo": 1845,
      "eron": 1846,
      "osÃ©": 1847,
      "Ġenti": 1848,
      "alismo": 1849,
      "Ġincor": 1850,
      "Ġof": 1851,
      "Ġvista": 1852,
      "ĠdespuÃ©s": 1853,
      "ĠbÃ¡s": 1854,
      "Ġconstru": 1855,
      "tificar": 1856,
      "ĠcontemporÃ¡n": 1857,
      "omÃŃa": 1858,
      "Ġninguna": 1859,
      "Ġpueblos": 1860,
      "OS": 1861,
      "gaciÃ³n": 1862,
      "sos": 1863,
      "Ãĵ": 1864,
      "Ġdeb": 1865,
      "Ġdedica": 1866,
      "orda": 1867,
      "uncia": 1868,
      "Ġencon": 1869,
      "Ġfa": 1870,
      "Ġcontenido": 1871,
      "Ġhegel": 1872,
      "Ġrei": 1873,
      "tud": 1874,
      "letar": 1875,
      "ultura": 1876,
      "Ġdesta": 1877,
      "ĠII": 1878,
      "Ġpostu": 1879,
      "ĠFanon": 1880,
      "idas": 1881,
      "ĠconcepciÃ³n": 1882,
      "Ġprimero": 1883,
      "Ġposibilidades": 1884,
      "Ġalguna": 1885,
      "Ġcamino": 1886,
      "ĠCongreso": 1887,
      "ĠepistemolÃ³gica": 1888,
      "Ġtransform": 1889,
      "ĠÃīs": 1890,
      "Ġdefinitiva": 1891,
      "ĠpreocupaciÃ³n": 1892,
      "De": 1893,
      "ER": 1894,
      "Por": 1895,
      "fes": 1896,
      "her": 1897,
      "imo": 1898,
      "lara": 1899,
      "endi": 1900,
      "untad": 1901,
      "Ġrecha": 1902,
      "Ġoc": 1903,
      "ĠdÃ©": 1904,
      "Ġtomar": 1905,
      "ĠDE": 1906,
      "ciales": 1907,
      "blemente": 1908,
      "Ġopres": 1909,
      "Ġsigue": 1910,
      "nacional": 1911,
      "ĠhabrÃŃa": 1912,
      "Ġverda": 1913,
      "ĠJosÃ©": 1914,
      "ĠcomÃºn": 1915,
      "Ġtenden": 1916,
      "ĠgeneraciÃ³n": 1917,
      "âĢĶâĢĶ,": 1918,
      "âĢĶâĢĶâĢĶâĢĶ,": 1919,
      "Ġalterna": 1920,
      "trib": 1921,
      "Ġanalizar": 1922,
      "Ġrecono": 1923,
      "Ġuniversal": 1924,
      "ĠLevinas": 1925,
      "Ġenfoque": 1926,
      "16": 1927,
      "Cu": 1928,
      "cf": 1929,
      "edades": 1930,
      "otros": 1931,
      "rin": 1932,
      "via": 1933,
      "vÃ©s": 1934,
      "Ġol": 1935,
      "Ġaten": 1936,
      "tados": 1937,
      "queda": 1938,
      "Ġconj": 1939,
      "Ã¡lo": 1940,
      "tras": 1941,
      "ecen": 1942,
      "ĠLeopol": 1943,
      "ĠfilosofÃŃas": 1944,
      "Ġsocio": 1945,
      "izada": 1946,
      "ficar": 1947,
      "ficos": 1948,
      "ĠDes": 1949,
      "Ġserie": 1950,
      "ĠHa": 1951,
      "Ġcir": 1952,
      "Ġparticip": 1953,
      "Ã³logo": 1954,
      "oluciÃ³n": 1955,
      "Ġpaso": 1956,
      "Ġtener": 1957,
      "Ġcristiana": 1958,
      "thusser": 1959,
      "Ġjustifica": 1960,
      "ĠTotalidad": 1961,
      "Ġentender": 1962,
      "Ġrepresenta": 1963,
      "Ġacad": 1964,
      "Ġcomprender": 1965,
      "ĠManuel": 1966,
      "Ġejemplo": 1967,
      "Ãºsqueda": 1968,
      "gre": 1969,
      "imp": 1970,
      "icio": 1971,
      "pendencia": 1972,
      "Ġren": 1973,
      "enen": 1974,
      "ĠlÃ³gica": 1975,
      "eran": 1976,
      "ercer": 1977,
      "ĠcÃŃrculo": 1978,
      "arios": 1979,
      "tidi": 1980,
      "orn": 1981,
      "Ġed": 1982,
      "cado": 1983,
      "ismos": 1984,
      "alista": 1985,
      "ray": 1986,
      "ase": 1987,
      "turel": 1988,
      "Ġindica": 1989,
      "amÃ©rica": 1990,
      "terio": 1991,
      "ĠLA": 1992,
      "ideologÃŃa": 1993,
      "Ġ14": 1994,
      "ĠCro": 1995,
      "genes": 1996,
      "Ġmuerte": 1997,
      "Ġ1977": 1998,
      "Ġhablar": 1999,
      "Ġpasa": 2000,
      "Ġafirmar": 2001,
      "vertir": 2002,
      "Ġdistingu": 2003,
      "Ġvalor": 2004,
      "Ġestudios": 2005,
      "Ġcondicion": 2006,
      "Ġhumana": 2007,
      "Ġrespon": 2008,
      "ĠÃ©sta": 2009,
      "Ġaporte": 2010,
      "Ġcomunidad": 2011,
      "Ġabsolu": 2012,
      "ĠmetafÃŃsica": 2013,
      "histÃ³": 2014,
      "Ġburgues": 2015,
      "Ġlargo": 2016,
      "TI": 2017,
      "bica": 2018,
      "dr": 2019,
      "pe": 2020,
      "pciÃ³n": 2021,
      "para": 2022,
      "uda": 2023,
      "vol": 2024,
      "Âª": 2025,
      "Ġpun": 2026,
      "cimiento": 2027,
      "âĢľ": 2028,
      "menta": 2029,
      "Ġrefi": 2030,
      "Ġcotidi": 2031,
      "Ġveces": 2032,
      "Ġproletar": 2033,
      "izado": 2034,
      "ĠtravÃ©s": 2035,
      "mbres": 2036,
      "ensa": 2037,
      "Ġba": 2038,
      "Ġliberador": 2039,
      "Ġdire": 2040,
      "dose": 2041,
      "Ġconsecu": 2042,
      "ĠHu": 2043,
      "ĠEnrique": 2044,
      "Ġgrupo": 2045,
      "ega": 2046,
      "ĠhabÃŃa": 2047,
      "Ġhabla": 2048,
      "Ġconsiderar": 2049,
      "Ġfundamento": 2050,
      "alÃ©ctico": 2051,
      "ĠontolÃ³gico": 2052,
      "Ġpretende": 2053,
      "Ġgeneral": 2054,
      "ĠnegaciÃ³n": 2055,
      "Ġponer": 2056,
      "ĠseÃ±alar": 2057,
      "Ġeuropeo": 2058,
      "Ġsurge": 2059,
      "Ġinflu": 2060,
      "Ġidentifica": 2061,
      "Ġadelante": 2062,
      "Ġpermanente": 2063,
      "atto": 2064,
      "Ġimagen": 2065,
      "ĠdimensiÃ³n": 2066,
      "cracia": 2067,
      "ĠLeopoldo": 2068,
      "17": 2069,
      "Con": 2070,
      "Para": 2071,
      "tÃ©": 2072,
      "ura": 2073,
      "Ãį": 2074,
      "ĠW": 2075,
      "Ġtu": 2076,
      "Ġcla": 2077,
      "Ġemp": 2078,
      "ĠediciÃ³n": 2079,
      "Ġmuestra": 2080,
      "ibli": 2081,
      "ĠSo": 2082,
      "izquier": 2083,
      "Ġdice": 2084,
      "tancia": 2085,
      "gencia": 2086,
      "Ġidea": 2087,
      "clu": 2088,
      "Ġarti": 2089,
      "ĠOtro": 2090,
      "Ġsubray": 2091,
      "Ġlleg": 2092,
      "Ġdesarrolla": 2093,
      "Ġcristiano": 2094,
      "Ġries": 2095,
      "Ġcritica": 2096,
      "Ġindividu": 2097,
      "ĠelaboraciÃ³n": 2098,
      "ĠmetodolÃ³gica": 2099,
      "miso": 2100,
      "ĠLatinoamericana": 2101,
      "Ġevide": 2102,
      "Ġreformul": 2103,
      "Ġincorpor": 2104,
      "15": 2105,
      "20": 2106,
      "24": 2107,
      "bir": 2108,
      "cera": 2109,
      "cara": 2110,
      "gn": 2111,
      "itar": 2112,
      "imiento": 2113,
      "junio": 2114,
      "Ġderi": 2115,
      "Ġdeber": 2116,
      "cios": 2117,
      "tiza": 2118,
      "oriz": 2119,
      "ale": 2120,
      "ing": 2121,
      "ĠSegÃºn": 2122,
      "mbol": 2123,
      "ĠbÃŃ": 2124,
      "Ġestado": 2125,
      "Ġliberadora": 2126,
      "ficaciÃ³n": 2127,
      "dores": 2128,
      "Ġgrup": 2129,
      "popul": 2130,
      "Ġsupuesto": 2131,
      "Ġubi": 2132,
      "Ġdado": 2133,
      "mÃ¡tico": 2134,
      "Ġllega": 2135,
      "ĠAlber": 2136,
      "Ġinteresa": 2137,
      "Ġcorr": 2138,
      "Ġfuerza": 2139,
      "Ġeuropea": 2140,
      "Ġcuestiones": 2141,
      "ĠhermenÃ©utica": 2142,
      "Ġperspectiva": 2143,
      "ĠCroatto": 2144,
      "[...]": 2145,
      "bier": 2146,
      "oy": 2147,
      "Ġdeci": 2148,
      "ern": 2149,
      "Ġejer": 2150,
      "Ġcono": 2151,
      "ibidem": 2152,
      "ĠLu": 2153,
      "ĠCultura": 2154,
      "Ġbrin": 2155,
      "ĠbÃºsqueda": 2156,
      "Ġdifi": 2157,
      "Ġmoder": 2158,
      "ĠTe": 2159,
      "Ġespec": 2160,
      "Ġinstru": 2161,
      "ĠAlthusser": 2162,
      "uelve": 2163,
      "Ġformas": 2164,
      "Ġnosotros": 2165,
      "Ġexistencial": 2166,
      "Ġbase": 2167,
      "tismo": 2168,
      "Ġanteceden": 2169,
      "Ġcentr": 2170,
      "Ġdiferencia": 2171,
      "Ġobservaciones": 2172,
      "ĠCaturel": 2173,
      "Ġpregunta": 2174,
      "ĠcontradicciÃ³n": 2175,
      "ĠintegraciÃ³n": 2176,
      "ĠÃºnica": 2177,
      "Ġmostrar": 2178,
      "Ġenfrenta": 2179,
      "Ġpesar": 2180,
      "ĠartÃŃculo": 2181,
      "Ã¡logo": 2182,
      "Ġarticul": 2183,
      "ĠCaturelli": 2184,
      "ban": 2185,
      "dis": 2186,
      "ge": 2187,
      "liberaciÃ³n": 2188,
      "mon": 2189,
      "Ġro": 2190,
      "Ġil": 2191,
      "dez": 2192,
      "Ġacu": 2193,
      "oner": 2194,
      "tido": 2195,
      "Ġconex": 2196,
      "diendo": 2197,
      "Ġsuficiente": 2198,
      "rir": 2199,
      "Ġve": 2200,
      "Ġvig": 2201,
      "Ġviene": 2202,
      "Ġ16": 2203,
      "ĠPa": 2204,
      "ĠMu": 2205,
      "ĠMÃ¡s": 2206,
      "genu": 2207,
      "ĠacciÃ³n": 2208,
      "Ġ23": 2209,
      "ĠoposiciÃ³n": 2210,
      "Ġespa": 2211,
      "rante": 2212,
      "Ġargentina": 2213,
      "poca": 2214,
      "Ġdiscursos": 2215,
      "Ġhoy": 2216,
      "Ġtratamiento": 2217,
      "lesia": 2218,
      "Ġexpresa": 2219,
      "Ġcorre": 2220,
      "ĠOrtiz": 2221,
      "Ġorigen": 2222,
      "Ġponencia": 2223,
      "ĠsuperaciÃ³n": 2224,
      "ĠningÃºn": 2225,
      "Ġmanifies": 2226,
      "Ġetapa": 2227,
      "ĠNuevo": 2228,
      "ÃĵN": 2229,
      "Ġalternativa": 2230,
      "Ġpuntos": 2231,
      "14": 2232,
      "enca": 2233,
      "erut": 2234,
      "ondo": 2235,
      "ÃŃri": 2236,
      "Ġmer": 2237,
      "anti": 2238,
      "trada": 2239,
      "amientos": 2240,
      "ĠvÃŃa": 2241,
      "tinoamÃ©rica": 2242,
      "Ã³gicos": 2243,
      "Ġmodos": 2244,
      "ĠHis": 2245,
      "Ġrevista": 2246,
      "Ġdesarroll": 2247,
      "ĠÃºltima": 2248,
      "Ġmuchas": 2249,
      "quiere": 2250,
      "Ġexistencia": 2251,
      "Ġoriginal": 2252,
      "Ġrepresen": 2253,
      "Ġlimi": 2254,
      "eciera": 2255,
      "Ġafirmaciones": 2256,
      "ĠQuizÃ¡": 2257,
      "Ġdescubri": 2258,
      "Ġasumir": 2259,
      "Ġubicar": 2260,
      "erutti": 2261,
      "25": 2262,
      "27": 2263,
      "EN": 2264,
      "eza": 2265,
      "hilos": 2266,
      "liber": 2267,
      "ncia": 2268,
      "pens": 2269,
      "Ġtor": 2270,
      "ĠÃŃn": 2271,
      "Ġigu": 2272,
      "dera": 2273,
      "entro": 2274,
      "Ġdetal": 2275,
      "Ġevi": 2276,
      "Ġesas": 2277,
      "anismo": 2278,
      "Ġconclus": 2279,
      "usta": 2280,
      "Ġexten": 2281,
      "ogrÃ¡": 2282,
      "ĠLatinoamÃ©rica": 2283,
      "Ġbibli": 2284,
      "Ġdicho": 2285,
      "che": 2286,
      "ĠIde": 2287,
      "Ġpensadores": 2288,
      "Ġsir": 2289,
      "Ġpueda": 2290,
      "Ġaclara": 2291,
      "ĠEntre": 2292,
      "Ġprior": 2293,
      "nacio": 2294,
      "Ġplan": 2295,
      "cultura": 2296,
      "Ġmarxistas": 2297,
      "Ġsubdesarrol": 2298,
      "cribe": 2299,
      "Ġllegar": 2300,
      "Ġcorres": 2301,
      "Ġreferencias": 2302,
      "Ġargentinos": 2303,
      "Ġcapitalismo": 2304,
      "ĠeconÃ³mica": 2305,
      "ivamente": 2306,
      "oph": 2307,
      "ĠMeth": 2308,
      "ĠIglesia": 2309,
      "ĠIgnacio": 2310,
      "Ġcompromiso": 2311,
      "Ġreligios": 2312,
      "NAM": 2313,
      "Ġpuramente": 2314,
      "ĠautÃ©ntica": 2315,
      "Ġconjunto": 2316,
      "Ġproletariado": 2317,
      "hilosoph": 2318,
      "AR": 2319,
      "bar": 2320,
      "cun": 2321,
      "cciones": 2322,
      "fas": 2323,
      "gor": 2324,
      "ita": 2325,
      "imi": 2326,
      "jos": 2327,
      "lor": 2328,
      "pas": 2329,
      "siones": 2330,
      "Ġdeba": 2331,
      "Ġpien": 2332,
      "Ġpues": 2333,
      "estro": 2334,
      "eraciÃ³n": 2335,
      "Ġlado": 2336,
      "Ġedi": 2337,
      "unca": 2338,
      "Ġesque": 2339,
      "Ġfor": 2340,
      "Ã¡cter": 2341,
      "Ġhoriz": 2342,
      "mocracia": 2343,
      "Ġsuma": 2344,
      "Ġincluy": 2345,
      "ama": 2346,
      "mata": 2347,
      "elig": 2348,
      "ĠMa": 2349,
      "tromata": 2350,
      "ĠFerr": 2351,
      "Ġaclar": 2352,
      "Ġactividad": 2353,
      "Ġacerca": 2354,
      "Ã¡ndo": 2355,
      "Ġquer": 2356,
      "Ġtienen": 2357,
      "Ġplen": 2358,
      "Ġconceptos": 2359,
      "Ġubica": 2360,
      "Ġmedio": 2361,
      "oracio": 2362,
      "ambigÃ¼edad": 2363,
      "polÃŃtica": 2364,
      "Ġnaturaleza": 2365,
      "ortun": 2366,
      "Ġtrascenden": 2367,
      "Ġsimplemente": 2368,
      "Ġmasas": 2369,
      "Ġreiter": 2370,
      "ĠHugo": 2371,
      "ĠMethol": 2372,
      "ĠFerrÃ©": 2373,
      "22": 2374,
      "23": 2375,
      "bles": 2376,
      "gma": 2377,
      "it": 2378,
      "vedad": 2379,
      "zado": 2380,
      "ciar": 2381,
      "arÃ¡": 2382,
      "Ġequ": 2383,
      "unciÃ³n": 2384,
      "Ġmal": 2385,
      "icas": 2386,
      "mentar": 2387,
      "mentaciÃ³n": 2388,
      "ricos": 2389,
      "ĠallÃŃ": 2390,
      "ibilidad": 2391,
      "ĠStromata": 2392,
      "Ġdesp": 2393,
      "ĠPerÃ³n": 2394,
      "ĠdiÃ¡logo": 2395,
      "ĠDi": 2396,
      "ivas": 2397,
      "Ġpropone": 2398,
      "conciencia": 2399,
      "Ġcitado": 2400,
      "lic": 2401,
      "Ġinstitu": 2402,
      "Ġinterpretaciones": 2403,
      "ĠdifÃŃ": 2404,
      "endoza": 2405,
      "ĠcarÃ¡cter": 2406,
      "ĠcaracterÃŃstica": 2407,
      "Ġnega": 2408,
      "Ġprofes": 2409,
      "tizaciÃ³n": 2410,
      "Ġcapitalista": 2411,
      "undial": 2412,
      "ĠXXI": 2413,
      "Ġavanzar": 2414,
      "Ġamericano": 2415,
      "Ġapunta": 2416,
      "Ġmodelo": 2417,
      "Ġencontrar": 2418,
      "Ġbajo": 2419,
      "Ġgrupos": 2420,
      "ÃŃritu": 2421,
      "28": 2422,
      "Una": 2423,
      "atro": 2424,
      "oca": 2425,
      "ril": 2426,
      "Ġizquier": 2427,
      "Ġdef": 2428,
      "erra": 2429,
      "onen": 2430,
      "ueva": 2431,
      "Ġesbo": 2432,
      "Ġmili": 2433,
      "Ġnunca": 2434,
      "Ġfec": 2435,
      "illo": 2436,
      "dice": 2437,
      "ientes": 2438,
      "ĠAhora": 2439,
      "tener": 2440,
      "ques": 2441,
      "Ġdesa": 2442,
      "ables": 2443,
      "Ġdiscu": 2444,
      "Ġinterro": 2445,
      "Ġrealizar": 2446,
      "ĠTercer": 2447,
      "cerni": 2448,
      "ĠclÃ¡s": 2449,
      "Ġ1970": 2450,
      "Ġoportun": 2451,
      "guros": 2452,
      "Ġmediante": 2453,
      "ĠpolÃŃticas": 2454,
      "Ġpresencia": 2455,
      "Ġcierta": 2456,
      "Ġtercer": 2457,
      "Ġintereses": 2458,
      "Ġvalores": 2459,
      "ĠeconomÃŃa": 2460,
      "Ġriguros": 2461,
      "Ġjustamente": 2462,
      "ĠseÃ±ala": 2463,
      "Ġperonista": 2464,
      "ĠTodo": 2465,
      "Ġestructuras": 2466,
      "Ġirra": 2467,
      "Ġmovimientos": 2468,
      "Ġidenti": 2469,
      "Ġcosas": 2470,
      "ĠmetodologÃŃa": 2471,
      "vileg": 2472,
      "Ġmanifes": 2473,
      "Ġjuicio": 2474,
      "media": 2475,
      "cidental": 2476,
      "Ġexplici": 2477,
      "ĠcontinuaciÃ³n": 2478,
      "CIÃĵN": 2479,
      "Ġmateriales": 2480,
      "Ġnuevas": 2481,
      "Ġentiende": 2482,
      "ĠtransformaciÃ³n": 2483,
      "ĠacadÃ©mica": 2484,
      "Ġrefiere": 2485,
      "Ġclave": 2486,
      "Ġriesgo": 2487,
      "26": 2488,
      "Lo": 2489,
      "Un": 2490,
      "ader": 2491,
      "hu": 2492,
      "imos": 2493,
      "mun": 2494,
      "praxis": 2495,
      "ron": 2496,
      "defin": 2497,
      "Ġpelig": 2498,
      "ciembre": 2499,
      "Ġcal": 2500,
      "Ġah": 2501,
      "Ġado": 2502,
      "Ġatrib": 2503,
      "arlo": 2504,
      "tible": 2505,
      "Ġmundial": 2506,
      "doba": 2507,
      "Ġcontr": 2508,
      "Ã©cn": 2509,
      "Ġingenu": 2510,
      "trado": 2511,
      "traciÃ³n": 2512,
      "Ġhacen": 2513,
      "tencia": 2514,
      "elia": 2515,
      "ĠCerutti": 2516,
      "ĠcuÃ¡l": 2517,
      "Ġlog": 2518,
      "ĠteolÃ³gico": 2519,
      "ĠMendoza": 2520,
      "generaciÃ³n": 2521,
      "doso": 2522,
      "ĠHoracio": 2523,
      "Ġ24": 2524,
      "Ġasim": 2525,
      "ĠGusta": 2526,
      "ĠÃ©poca": 2527,
      "ĠtÃ©cn": 2528,
      "Ġprivileg": 2529,
      "Ġjunto": 2530,
      "Ġracional": 2531,
      "Ġhombres": 2532,
      "quÃŃn": 2533,
      "Ġ30": 2534,
      "Ġpasar": 2535,
      "Ġrepro": 2536,
      "âĢĻ,": 2537,
      "berg": 2538,
      "Ġrespuesta": 2539,
      "Ġfuturo": 2540,
      "Ġvolver": 2541,
      "ĠAndr": 2542,
      "Ġvisto": 2543,
      "ĠlÃŃneas": 2544,
      "Ġrevolucionario": 2545,
      "Ġamericana": 2546,
      "hacer": 2547,
      "ĠcontemporÃ¡nea": 2548,
      "Ġhegeliana": 2549,
      "Ġbrinda": 2550,
      "ĠespecÃŃ": 2551,
      "ĠdifÃŃcil": 2552,
      "cernimiento": 2553,
      "21": 2554,
      "29": 2555,
      "30": 2556,
      "Al": 2557,
      "IL": 2558,
      "Qu": 2559,
      "cus": 2560,
      "ctr": 2561,
      "dberg": 2562,
      "fo": 2563,
      "gus": 2564,
      "hil": 2565,
      "idos": 2566,
      "mil": 2567,
      "mÃ¡n": 2568,
      "pital": 2569,
      "tz": 2570,
      "tÃ¡n": 2571,
      "tÃŃn": 2572,
      "Ġgo": 2573,
      "enin": 2574,
      "encial": 2575,
      "Ġdeten": 2576,
      "Ġdecl": 2577,
      "Ġdeja": 2578,
      "Ġsiendo": 2579,
      "tion": 2580,
      "dag": 2581,
      "Ã³nde": 2582,
      "Ġencar": 2583,
      "Ġunidad": 2584,
      "Ġconce": 2585,
      "Ġreg": 2586,
      "ĠalgÃºn": 2587,
      "uldberg": 2588,
      "ĠPo": 2589,
      "ĠPu": 2590,
      "Ġsiquiera": 2591,
      "ĠEstas": 2592,
      "ĠrealizaciÃ³n": 2593,
      "Ġobr": 2594,
      "ĠGuldberg": 2595,
      "Ġsusten": 2596,
      "Ġ1976": 2597,
      "cistas": 2598,
      "Ġpartido": 2599,
      "Ġparticular": 2600,
      "Ġsiglo": 2601,
      "Ġplena": 2602,
      "Ġmati": 2603,
      "Ġras": 2604,
      "Ã³logos": 2605,
      "Ġdependi": 2606,
      "Ġverti": 2607,
      "ĠcrÃŃticas": 2608,
      "Ġhaya": 2609,
      "Ġtercera": 2610,
      "ĠdifusiÃ³n": 2611,
      "Esta": 2612,
      "Ġplantea": 2613,
      "Ġvari": 2614,
      "ĠAsÃŃ": 2615,
      "Ġpeque": 2616,
      "Ġentendida": 2617,
      "ĠInter": 2618,
      "Ġperson": 2619,
      "Ġabstra": 2620,
      "ĠcientÃŃfico": 2621,
      "Ġrevolucionaria": 2622,
      "ĠexplÃŃcitamente": 2623,
      "Ã³rdoba": 2624,
      "Ġcolonial": 2625,
      "Ġaprox": 2626,
      "Ġoccidental": 2627,
      "Ġpiensa": 2628,
      "Ġtrascendental": 2629,
      "ĠGustavo": 2630,
      "Ġreprodu": 2631,
      "55": 2632,
      "ICA": 2633,
      "Te": 2634,
      "bal": 2635,
      "bilidad": 2636,
      "ya": 2637,
      "Ġul": 2638,
      "Ġign": 2639,
      "Ġles": 2640,
      "aron": 2641,
      "Ġesos": 2642,
      "ine": 2643,
      "Ġmon": 2644,
      "Ã¡r": 2645,
      "Ġinmedia": 2646,
      "como": 2647,
      "ĠAu": 2648,
      "ĠAquÃŃ": 2649,
      "ulio": 2650,
      "ĠdÃ³nde": 2651,
      "ĠSoci": 2652,
      "ĠMario": 2653,
      "Ġ(Â¿": 2654,
      "ĠIII": 2655,
      "ĠEstado": 2656,
      "ĠHab": 2657,
      "ĠpolÃŃticos": 2658,
      "Ġsocialismo": 2659,
      "Ġjuego": 2660,
      "ĠespÃŃritu": 2661,
      "Ġcualquier": 2662,
      "Ġcientificismo": 2663,
      "Ġciertas": 2664,
      "ĠVerÃ³n": 2665,
      "Ġtotalmente": 2666,
      "Ġdistintos": 2667,
      "Ġ[...].": 2668,
      "Ġambos": 2669,
      "Ġsituaciones": 2670,
      "thos": 2671,
      "Ġintegran": 2672,
      "Ġvoluntad": 2673,
      "Ġgrandes": 2674,
      "Ġindicar": 2675,
      "ĠvisiÃ³n": 2676,
      "Ġprecisamente": 2677,
      "crÃŃtica": 2678,
      "ĠantropologÃŃa": 2679,
      "colon": 2680,
      "Ġespecifi": 2681,
      "Ġimposible": 2682,
      "ĠlÃŃmite": 2683,
      "ĠbÃŃblica": 2684,
      "ĠHistoria": 2685,
      "ĠbibliografÃŃa": 2686,
      "adernos": 2687,
      "49": 2688,
      "50": 2689,
      "CE": 2690,
      "Las": 2691,
      "Res": 2692,
      "exis": 2693,
      "fa": 2694,
      "fican": 2695,
      "filosÃ³": 2696,
      "ho": 2697,
      "omen": 2698,
      "pres": 2699,
      "estruc": 2700,
      "cida": 2701,
      "erdo": 2702,
      "oso": 2703,
      "Ġseno": 2704,
      "ares": 2705,
      "arqu": 2706,
      "tida": 2707,
      "ticia": 2708,
      "tiene": 2709,
      "ord": 2710,
      "cas": 2711,
      "Ġente": 2712,
      "Ġesti": 2713,
      "Ġneo": 2714,
      "ĠâĢľÂ¿": 2715,
      "Ġfran": 2716,
      "Ġcoin": 2717,
      "econ": 2718,
      "Ġalien": 2719,
      "Ġprogra": 2720,
      "iglo": 2721,
      "iguel": 2722,
      "ustri": 2723,
      "Ġ11": 2724,
      "ĠClar": 2725,
      "ĠCÃ³rdoba": 2726,
      "Ġtratar": 2727,
      "Ġteor": 2728,
      "Ġtemas": 2729,
      "ĠtemÃ¡tica": 2730,
      "abora": 2731,
      "trÃ¡s": 2732,
      "lado": 2733,
      "Ġmodi": 2734,
      "Ġinternacional": 2735,
      "Ġapoy": 2736,
      "Ġ26": 2737,
      "Ġ28": 2738,
      "Ġaspecto": 2739,
      "Ġobs": 2740,
      "ĠGar": 2741,
      "ĠGun": 2742,
      "Ġjue": 2743,
      "Ġorien": 2744,
      "culos": 2745,
      "ĠrazÃ³n": 2746,
      "Ġur": 2747,
      "ĠmediaciÃ³n": 2748,
      "ĠYa": 2749,
      "Ġgenera": 2750,
      "Ġadvierte": 2751,
      "uropa": 2752,
      "ĠcondiciÃ³n": 2753,
      "igura": 2754,
      "Ġhistoricista": 2755,
      "ĠsignificaciÃ³n": 2756,
      "ĠobservaciÃ³n": 2757,
      "ĠFrank": 2758,
      "Ġaceptar": 2759,
      "ĠÃºnico": 2760,
      "Ġcomienza": 2761,
      "ĠdiscusiÃ³n": 2762,
      "ĠdÃ©cada": 2763,
      "imperial": 2764,
      "Ġdistinguir": 2765,
      "Ġconclusiones": 2766,
      "cuns": 2767,
      "Ġasimil": 2768,
      ");": 2769,
      "33": 2770,
      "Hay": 2771,
      "TO": 2772,
      "em": 2773,
      "eos": 2774,
      "eidad": 2775,
      "gon": 2776,
      "lico": 2777,
      "pes": 2778,
      "ĠÃ³n": 2779,
      "dependencia": 2780,
      "Ġlector": 2781,
      "eros": 2782,
      "Ġale": 2783,
      "tatu": 2784,
      "isto": 2785,
      "rev": 2786,
      "tologÃŃa": 2787,
      "inos": 2788,
      "ĠfÃ¡": 2789,
      "Ġreel": 2790,
      "Ġinclu": 2791,
      "aman": 2792,
      "ĠEdi": 2793,
      "ĠEuropa": 2794,
      "loch": 2795,
      "Ġvi": 2796,
      "mpli": 2797,
      "ular": 2798,
      "ĠLenin": 2799,
      "Ġdista": 2800,
      "ĠSiglo": 2801,
      "ĠComo": 2802,
      "Ġdesen": 2803,
      "Ġcumpl": 2804,
      "Ġcuatro": 2805,
      "ĠMiguel": 2806,
      "Ġperio": 2807,
      "Ġpropor": 2808,
      "Ġ27": 2809,
      "Ġcita": 2810,
      "ersiÃ³n": 2811,
      "Ġmaestro": 2812,
      "rena": 2813,
      "cipl": 2814,
      "Ġnacionales": 2815,
      "Ġcolabor": 2816,
      "ĠsÃŃmbol": 2817,
      "Ġaquello": 2818,
      "Ġrigor": 2819,
      "igÃ¼edades": 2820,
      "Ġfueron": 2821,
      "ĠCuenca": 2822,
      "Ġgrave": 2823,
      "Ġdecisivo": 2824,
      "Ġindis": 2825,
      "Ġimperialismo": 2826,
      "ĠreligiÃ³n": 2827,
      "marxismo": 2828,
      "Ġabierto": 2829,
      "Ġcuya": 2830,
      "Ġexplicar": 2831,
      "ĠdescripciÃ³n": 2832,
      "cultades": 2833,
      "Ġoprimidos": 2834,
      "Ġservicio": 2835,
      "versiÃ³n": 2836,
      "Ġderecha": 2837,
      "Ġfrag": 2838,
      "Ġrechazo": 2839,
      "ĠHacia": 2840,
      "Ġcircuns": 2841,
      "ĠburguesÃŃa": 2842,
      "ÃįA": 2843,
      "Ġevitar": 2844,
      "ogrÃ¡fica": 2845,
      "illot": 2846,
      "ĠAndrÃ©s": 2847,
      "ILOS": 2848,
      "Ġespecificidad": 2849,
      "32": 2850,
      "59": 2851,
      "bor": 2852,
      "bra": 2853,
      "ctamente": 2854,
      "gel": 2855,
      "jus": 2856,
      "ponde": 2857,
      "zas": 2858,
      "Ġr": 2859,
      "ĠdemÃ¡s": 2860,
      "Ġdemocracia": 2861,
      "Ġefica": 2862,
      "teologÃŃa": 2863,
      "ung": 2864,
      "Ġmera": 2865,
      "Ġfondo": 2866,
      "Ġconoci": 2867,
      "Ġrea": 2868,
      "Ġrecor": 2869,
      "Ġdelimi": 2870,
      "ĠEx": 2871,
      "ecciÃ³n": 2872,
      "mpo": 2873,
      "maz": 2874,
      "ĠSÃ³lo": 2875,
      "ĠPhilosoph": 2876,
      "Ġliberal": 2877,
      "ĠdialÃ©ctico": 2878,
      "Ġmovil": 2879,
      "ĠImaz": 2880,
      "Ġconsciente": 2881,
      "Ġlatinoamericanas": 2882,
      "Ġaconte": 2883,
      "vida": 2884,
      "mando": 2885,
      "tÃ³p": 2886,
      "Ġ29": 2887,
      "cepciÃ³n": 2888,
      "Ã¡ndose": 2889,
      "social": 2890,
      "irse": 2891,
      "ĠÃ©tico": 2892,
      "Ġ1971": 2893,
      "Ġopin": 2894,
      "Ġmismas": 2895,
      "ĠnÃºmero": 2896,
      "Ġdistingue": 2897,
      "ĠconstituciÃ³n": 2898,
      "ĠambigÃ¼edades": 2899,
      "ĠpretensiÃ³n": 2900,
      "Ġcarga": 2901,
      "ĠpodrÃ¡": 2902,
      "Ġconcreto": 2903,
      "Ġjustificar": 2904,
      "196": 2905,
      "ĠMarcus": 2906,
      "Ġpedag": 2907,
      "Ġheidegger": 2908,
      "Ġpropiamente": 2909,
      "ĠÃģ": 2910,
      "tista": 2911,
      "ĠCuadernos": 2912,
      "Ġcentro": 2913,
      "III": 2914,
      "Ġindustri": 2915,
      "Ġprecisiones": 2916,
      "Ġfalta": 2917,
      "marxista": 2918,
      "ĠintroducciÃ³n": 2919,
      "Ġhip": 2920,
      "Ġuso": 2921,
      "Ġanalog": 2922,
      "Ġquienes": 2923,
      "Ġnuevos": 2924,
      "Ġespecie": 2925,
      "Ġdejar": 2926,
      "ĠinvestigaciÃ³n": 2927,
      "Ġdeben": 2928,
      "ĠÃīsta": 2929,
      "Ġtendencias": 2930,
      "ornadas": 2931,
      "Ġespacio": 2932,
      "Ġmanifiesta": 2933,
      "Ġdetalle": 2934,
      "ĠcaracterÃŃsticas": 2935,
      "Ġidentidad": 2936,
      "Ġcontrario": 2937,
      "Ġmatices": 2938,
      "ĠMarcuse": 2939,
      "34": 2940,
      "42": 2941,
      "46": 2942,
      "48": 2943,
      "54": 2944,
      "?)": 2945,
      "Buenos": 2946,
      "Como": 2947,
      "FilosofÃŃa": 2948,
      "Los": 2949,
      "UNAM": 2950,
      "],": 2951,
      "iri": 2952,
      "londe": 2953,
      "mor": 2954,
      "sal": 2955,
      "uf": 2956,
      "zos": 2957,
      "Ġtes": 2958,
      "Ġtre": 2959,
      "Ġpone": 2960,
      "esa": 2961,
      "esis": 2962,
      "Ġaf": 2963,
      "arto": 2964,
      "ones": 2965,
      "Ã³tesis": 2966,
      "Ġethos": 2967,
      "inter": 2968,
      "Ġfide": 2969,
      "icamente": 2970,
      "Ġconcluy": 2971,
      "dir": 2972,
      "Ġrequ": 2973,
      "tuar": 2974,
      "Ġsuf": 2975,
      "Ġincon": 2976,
      "Ġoculta": 2977,
      "ientras": 2978,
      "Ġcoher": 2979,
      "Ġnombre": 2980,
      "ĠhacÃŃa": 2981,
      "Ġexclus": 2982,
      "izo": 2983,
      "mbÃ³": 2984,
      "ĠPens": 2985,
      "Ãºa": 2986,
      "Ġbasta": 2987,
      "Ġprevia": 2988,
      "ĠimplÃŃci": 2989,
      "ĠBloch": 2990,
      "Ġpropias": 2991,
      "Ã¡ndez": 2992,
      "Ġargu": 2993,
      "Ġhabl": 2994,
      "ĠhabrÃ¡": 2995,
      "ĠOs": 2996,
      "meta": 2997,
      "Ġproblematiza": 2998,
      "Ġcampes": 2999,
      "Ġdada": 3000,
      "gaciones": 3001,
      "alizaciÃ³n": 3002,
      "Ġexpresiones": 3003,
      "Ġintelig": 3004,
      "Ġcristianismo": 3005,
      "Ġadvertir": 3006,
      "Ġreflexiones": 3007,
      "Ġdistintas": 3008,
      "Ġdenuncia": 3009,
      "istencia": 3010,
      "ĠGuillot": 3011,
      "Ġhumanas": 3012,
      "ayo": 3013,
      "ĠdefiniciÃ³n": 3014,
      "Ġprofunda": 3015,
      "Ġdivul": 3016,
      "Ġhechos": 3017,
      "Ġfenomen": 3018,
      "proyecto": 3019,
      "Ġsuperar": 3020,
      "Ġbastante": 3021,
      "Ġsurgimiento": 3022,
      "Ġaportes": 3023,
      "Ġcosa": 3024,
      "Ġgrado": 3025,
      "sub": 3026,
      "Ġalcanzar": 3027,
      "Ġcontradicciones": 3028,
      "Ġfalsa": 3029,
      "Ġcomprome": 3030,
      "sic": 3031,
      "Ġsospec": 3032,
      "ĠhermenÃ©utico": 3033,
      "Ġsolamente": 3034,
      "ĠopresiÃ³n": 3035,
      "ĠatenciÃ³n": 3036,
      "ĠparticipaciÃ³n": 3037,
      "Ġinfluencia": 3038,
      "ernÃ¡ndez": 3039,
      "Ġantecedentes": 3040,
      "Ġenfrentamiento": 3041,
      "Ġsuficientemente": 3042,
      "ĠMurena": 3043,
      "Ġdebate": 3044,
      "Ġhorizonte": 3045,
      "Ġizquierda": 3046,
      "Ġulterior": 3047,
      ".),": 3048,
      "35": 3049,
      "36": 3050,
      "ACIÃĵN": 3051,
      "dÃ³": 3052,
      "eta": 3053,
      "eÃ±a": 3054,
      "gado": 3055,
      "ire": 3056,
      "iedad": 3057,
      "ifer": 3058,
      "jan": 3059,
      "ler": 3060,
      "laciÃ³n": 3061,
      "sab": 3062,
      "umin": 3063,
      "vide": 3064,
      "Â¡": 3065,
      "Ġtr": 3066,
      "ĠÃ©n": 3067,
      "del": 3068,
      "Ġlig": 3069,
      "Ġsue": 3070,
      "Ġcan": 3071,
      "Ġaus": 3072,
      "Ġabre": 3073,
      "uela": 3074,
      "ÃŃdo": 3075,
      "ÃŃgen": 3076,
      "caciÃ³n": 3077,
      "domin": 3078,
      "Ġelabora": 3079,
      "ani": 3080,
      "Ġconvi": 3081,
      "Ġconvierte": 3082,
      "Ġrequiere": 3083,
      "Ġsuger": 3084,
      "iencias": 3085,
      "amin": 3086,
      "Ġnovedad": 3087,
      "Ġvir": 3088,
      "igna": 3089,
      "Ġdin": 3090,
      "ĠCam": 3091,
      "ĠPan": 3092,
      "Ġparadi": 3093,
      "chas": 3094,
      "ciencias": 3095,
      "Ġmoda": 3096,
      "ĠImp": 3097,
      "ĠFe": 3098,
      "dua": 3099,
      "vimiento": 3100,
      "Ġcrisis": 3101,
      "ĠRa": 3102,
      "contin": 3103,
      "ĠasunciÃ³n": 3104,
      "entemente": 3105,
      "ĠtÃŃtulo": 3106,
      "Ġoper": 3107,
      "cisco": 3108,
      "Ġesperan": 3109,
      "cultural": 3110,
      "cultad": 3111,
      "ĠraÃŃ": 3112,
      "empla": 3113,
      "Ġmano": 3114,
      "Ġ37": 3115,
      "ĠPorque": 3116,
      "Ġinser": 3117,
      "Ġintentar": 3118,
      "ĠcabrÃŃa": 3119,
      "venir": 3120,
      "Ġfinal": 3121,
      "imaciÃ³n": 3122,
      "Ġcaracteriza": 3123,
      "Ġresponde": 3124,
      "Ġcriterio": 3125,
      "ĠCardoso": 3126,
      "Ġprofundi": 3127,
      "proble": 3128,
      "rafo": 3129,
      "197": 3130,
      "Ġhistoricismo": 3131,
      "Ġirre": 3132,
      "Ġanaliza": 3133,
      "Ġelaborar": 3134,
      "Ġ1968": 3135,
      "Ġreconocimiento": 3136,
      "ĠFrancisco": 3137,
      "Ġclaridad": 3138,
      "Ġescribe": 3139,
      "ĠepistemolÃ³gico": 3140,
      "Ġprincipal": 3141,
      "Ġefectivamente": 3142,
      "Ġestablecer": 3143,
      "Ġanteriores": 3144,
      "teratura": 3145,
      "Ġseguir": 3146,
      "Ġcomienzo": 3147,
      "Ġrevela": 3148,
      "Ġnecesariamente": 3149,
      "Ġdedicado": 3150,
      "CuÃ¡l": 3151,
      "histÃ³rica": 3152,
      "mentablemente": 3153,
      "Ġconsecuencias": 3154,
      "Ġevidente": 3155,
      "Ġcentral": 3156,
      "monio": 3157,
      "Ġromp": 3158,
      "Ġilus": 3159,
      "ĠPadua": 3160,
      "fasis": 3161,
      "ctrina": 3162,
      "Ġgobier": 3163,
      "Ġignor": 3164,
      "Ġintegrantes": 3165,
      "ĠClaro": 3166,
      "mpoco": 3167,
      "Ġtesti": 3168,
      "ĠÃ©nfasis": 3169,
      "31": 3170,
      "44": 3171,
      "45": 3172,
      "52": 3173,
      "OF": 3174,
      "Si": 3175,
      "ator": 3176,
      "cel": 3177,
      "pti": 3178,
      "sistema": 3179,
      "Ã£": 3180,
      "Ãī": 3181,
      "esiÃ³n": 3182,
      "ciaciÃ³n": 3183,
      "eria": 3184,
      "osa": 3185,
      "Ġay": 3186,
      "Ġago": 3187,
      "ĠaÃºn": 3188,
      "tima": 3189,
      "orta": 3190,
      "orden": 3191,
      "teÃ±o": 3192,
      "Ġesencial": 3193,
      "ins": 3194,
      "Ġne": 3195,
      "ĠâĢľ[...]": 3196,
      "Ġconfir": 3197,
      "Ã¡te": 3198,
      "Ġhizo": 3199,
      "mode": 3200,
      "Ġsean": 3201,
      "Ã©tico": 3202,
      "dia": 3203,
      "dicional": 3204,
      "Ġreac": 3205,
      "Ġocu": 3206,
      "Ġocul": 3207,
      "ampo": 3208,
      "Ġpareciera": 3209,
      "Ġalto": 3210,
      "Ġvital": 3211,
      "Ġvuelve": 3212,
      "ibl": 3213,
      "ula": 3214,
      "Ġdescon": 3215,
      "izan": 3216,
      "Ġ(âĢľ": 3217,
      "Ġperfec": 3218,
      "americano": 3219,
      "ĠIns": 3220,
      "ĠsimbÃ³": 3221,
      "Ġconsta": 3222,
      "Ġmecan": 3223,
      "turas": 3224,
      "duda": 3225,
      "Ġaplica": 3226,
      "Ġges": 3227,
      "Ġpropuestas": 3228,
      "...âĢĿ": 3229,
      "Ġresu": 3230,
      "Ġcaus": 3231,
      "ĠÃ©li": 3232,
      "Ġespiri": 3233,
      "Ġsupuestos": 3234,
      "ĠfilosÃ³ficos": 3235,
      "ĠutÃ³p": 3236,
      "Ġposibles": 3237,
      "Ġsubje": 3238,
      "Ġdogma": 3239,
      "Ġ36": 3240,
      "ĠsociolÃ³gica": 3241,
      "ĠJornadas": 3242,
      "Ġllevar": 3243,
      "Ġtampoco": 3244,
      "Ġinterpreta": 3245,
      "Ġinterpretar": 3246,
      "ĠÃºltimos": 3247,
      "Este": 3248,
      "Ġcrea": 3249,
      "ĠformaciÃ³n": 3250,
      "Ġvale": 3251,
      "Ġhacerlo": 3252,
      "Ġpretendida": 3253,
      "Ġaquella": 3254,
      "Ġcriticidad": 3255,
      "Ġoriginario": 3256,
      "Ġbastar": 3257,
      "Ġfundamentales": 3258,
      "valdo": 3259,
      "Ġdeterminada": 3260,
      "ĠindÃŃgen": 3261,
      "Ġtransforma": 3262,
      "ĠLatinoamericanos": 3263,
      "Ġobjetivo": 3264,
      "Ġetapas": 3265,
      "Ġcuyo": 3266,
      "Ġfacticidad": 3267,
      "Ġexige": 3268,
      "Ġoprimido": 3269,
      "Ġtrascendencia": 3270,
      "Ġbusca": 3271,
      "Ġmoral": 3272,
      "ĠlÃŃmites": 3273,
      "histÃ³rico": 3274,
      "Ġcotidian": 3275,
      "Ġtuvo": 3276,
      "ĠreformulaciÃ³n": 3277,
      "populismo": 3278,
      "Ġdificultades": 3279,
      "ĠTeologÃŃa": 3280,
      "ĠarticulaciÃ³n": 3281,
      "Ġadop": 3282,
      "QuÃ©": 3283,
      "ĠGarcÃŃa": 3284,
      "ĠGunder": 3285,
      "Ġjuega": 3286,
      "Ġreelabor": 3287,
      "Ġproporcion": 3288,
      "ILOSOF": 3289,
      "Ġproblematizador": 3290,
      "iferia": 3291,
      "Ġespiritual": 3292,
      "37": 3293,
      "40": 3294,
      "51": 3295,
      "cÃ³": 3296,
      "iciones": 3297,
      "ju": 3298,
      "lÃ¡n": 3299,
      "ne": 3300,
      "nidad": 3301,
      "pone": 3302,
      "rÃŃtica": 3303,
      "vio": 3304,
      "yendo": 3305,
      "Ġos": 3306,
      "Ġibidem": 3307,
      "Ġpena": 3308,
      "escribe": 3309,
      "Ġampl": 3310,
      "Ġagre": 3311,
      "ona": 3312,
      "onz": 3313,
      "tizar": 3314,
      "ueve": 3315,
      "ÃŃpu": 3316,
      "cal": 3317,
      "unta": 3318,
      "damente": 3319,
      "Ġentra": 3320,
      "Ġestra": 3321,
      "alo": 3322,
      "ĠmÃŃn": 3323,
      "Ã©tera": 3324,
      "diciembre": 3325,
      "Ġrecl": 3326,
      "rim": 3327,
      "Ġvan": 3328,
      "Ġvie": 3329,
      "ĠversiÃ³n": 3330,
      "Ġextre": 3331,
      "quÃ©": 3332,
      "Ġtratando": 3333,
      "mbra": 3334,
      "ĠMor": 3335,
      "Ġestaba": 3336,
      "cientificismo": 3337,
      "cialmente": 3338,
      "Ġconsul": 3339,
      "Ġexplo": 3340,
      "ĠRÃŃo": 3341,
      "ĠBar": 3342,
      "tÃ³lica": 3343,
      "Ġopera": 3344,
      "Ġmiseria": 3345,
      "ĠAmerican": 3346,
      "Ġjulio": 3347,
      "Ġmedias": 3348,
      "Ġabrir": 3349,
      "ĠSever": 3350,
      "ĠverÃ¡": 3351,
      "pacio": 3352,
      "Ġtend": 3353,
      "Ġrepe": 3354,
      "Ġproduce": 3355,
      "Ġproducir": 3356,
      "Ġaparecen": 3357,
      "Ġadmi": 3358,
      "ĠdistinciÃ³n": 3359,
      "Ġprensa": 3360,
      "Ġintenta": 3361,
      "ĠintenciÃ³n": 3362,
      "Ġhumanismo": 3363,
      "Ġmargin": 3364,
      "Ġconflic": 3365,
      "ĠsalvaciÃ³n": 3366,
      "Ġfuerte": 3367,
      "Ġdurante": 3368,
      "ĠMarÃŃa": 3369,
      "ĠMartÃŃn": 3370,
      "ĠhistoriografÃŃa": 3371,
      "Ġoriginalidad": 3372,
      "Ġpecado": 3373,
      "Ġhemos": 3374,
      "Ġactitudes": 3375,
      "Ġadecu": 3376,
      "ĠademÃ¡s": 3377,
      "Ġcosmo": 3378,
      "Ġinicia": 3379,
      "Ġinicio": 3380,
      "Ġprincipales": 3381,
      "Ġpreocupa": 3382,
      "Ġencuentro": 3383,
      "Ġterminar": 3384,
      "ĠexplÃŃcita": 3385,
      "ĠexplÃŃcito": 3386,
      "Ġformulaciones": 3387,
      "umiendo": 3388,
      "ĠantropolÃ³gica": 3389,
      "ĠQuito": 3390,
      "Ġencuentran": 3391,
      "ĠrevelaciÃ³n": 3392,
      "Ġdiversos": 3393,
      "Ġopresor": 3394,
      "Ġverdadera": 3395,
      "ĠDesde": 3396,
      "ĠAlberto": 3397,
      "Ġcorriente": 3398,
      "Ġconocer": 3399,
      "ĠrepresentaciÃ³n": 3400,
      "Ġesquema": 3401,
      "Ġincluye": 3402,
      "human": 3403,
      "gusto": 3404,
      "econÃ³": 3405,
      "ĠhipÃ³tesis": 3406,
      "ĠOsvaldo": 3407,
      "ptiembre": 3408,
      "Ã£o": 3409,
      "ampoco": 3410,
      "ĠInstitu": 3411,
      "ÃŃpulo": 3412,
      "ĠSeverino": 3413,
      "53": 3414,
      "?,": 3415,
      "AM": 3416,
      "CÃ³mo": 3417,
      "LA": 3418,
      "fe": 3419,
      "itud": 3420,
      "ificaciÃ³n": 3421,
      "jen": 3422,
      "jes": 3423,
      "lidad": 3424,
      "nueva": 3425,
      "pera": 3426,
      "ples": 3427,
      "tlÃ¡n": 3428,
      "ud": 3429,
      "vis": 3430,
      "vel": 3431,
      "Ġerr": 3432,
      "Ġder": 3433,
      "espacio": 3434,
      "cin": 3435,
      "Ġsuel": 3436,
      "onÃŃa": 3437,
      "tibilidad": 3438,
      "tase": 3439,
      "orte": 3440,
      "Ġemer": 3441,
      "ÃŃgue": 3442,
      "ĠmÃºlti": 3443,
      "Ġellas": 3444,
      "ĠfÃ³r": 3445,
      "icaciÃ³n": 3446,
      "Ġconven": 3447,
      "ilen": 3448,
      "Ã©mico": 3449,
      "olÃ³gicos": 3450,
      "Ġreci": 3451,
      "Ġrecu": 3452,
      "Ġredefin": 3453,
      "Ġreempla": 3454,
      "Ġsug": 3455,
      "Ġsuces": 3456,
      "ienen": 3457,
      "codi": 3458,
      "ĠvÃŃas": 3459,
      "torial": 3460,
      "ĠSar": 3461,
      "ĠCol": 3462,
      "Ġexter": 3463,
      "Ġexamin": 3464,
      "Ġdese": 3465,
      "Ġdesign": 3466,
      "cuentro": 3467,
      "ĠteÃ³logo": 3468,
      "ĠPla": 3469,
      "abe": 3470,
      "Ġdiri": 3471,
      "char": 3472,
      "segu": 3473,
      "adamente": 3474,
      "ivos": 3475,
      "Ġacen": 3476,
      "Ġacus": 3477,
      "Ġgri": 3478,
      "egre": 3479,
      "voca": 3480,
      "ĠTampoco": 3481,
      "Ġresto": 3482,
      "Ġcaer": 3483,
      "ĠGonz": 3484,
      "Ġtiende": 3485,
      "ĠmisiÃ³n": 3486,
      "licar": 3487,
      "estiÃ³n": 3488,
      "ionar": 3489,
      "Ġmedios": 3490,
      "ruto": 3491,
      "Ġculmin": 3492,
      "cando": 3493,
      "tivismo": 3494,
      "Ġdatos": 3495,
      "mÃ¡genes": 3496,
      "Ġrepudi": 3497,
      "ĠnÃºms": 3498,
      "ĠConviene": 3499,
      "Ġdecirse": 3500,
      "Ġdesarrollar": 3501,
      "terioridad": 3502,
      "tudios": 3503,
      "ĠhistÃ³ricas": 3504,
      "Ġplanteo": 3505,
      "Ġhumano": 3506,
      "uye": 3507,
      "Ġprimeros": 3508,
      "ĠdivisiÃ³n": 3509,
      "ĠsalteÃ±o": 3510,
      "Ġmenor": 3511,
      "Ġlibre": 3512,
      "Ġrelacion": 3513,
      "ĠAnquÃŃn": 3514,
      "Ġgrande": 3515,
      "ĠIncluso": 3516,
      "valu": 3517,
      "ĠQue": 3518,
      "Ġllamado": 3519,
      "Ġsignificativo": 3520,
      "ĠetcÃ©tera": 3521,
      "Ġcuestionamiento": 3522,
      "Ġtermina": 3523,
      "Ġ2003": 3524,
      "Ġmencionar": 3525,
      "Ġlarga": 3526,
      "ĠNueva": 3527,
      "ĠbÃ¡sicas": 3528,
      "ordatlÃ¡n": 3529,
      "Ġdestacar": 3530,
      "Ġreconocer": 3531,
      "ĠdeberÃ¡": 3532,
      "Ġcorrientes": 3533,
      "ĠconexiÃ³n": 3534,
      "Ġlimitaciones": 3535,
      "Ġsubdesarrollo": 3536,
      "Ġcorrespon": 3537,
      "Ġreligioso": 3538,
      "Ġaclarar": 3539,
      "Ġirracional": 3540,
      "ĠtÃ©cnica": 3541,
      "ĠPucara": 3542,
      "Ġvariantes": 3543,
      "ĠAugusto": 3544,
      "ĠobstÃ¡": 3545,
      "amanca": 3546,
      "Ġperiodo": 3547,
      "Ġcoherencia": 3548,
      "ĠraÃŃz": 3549,
      "Ġgobierno": 3550,
      "Ġdogmatismo": 3551,
      "ĠfÃ³rmul": 3552,
      "38": 3553,
      "56": 3554,
      "60": 3555,
      "78": 3556,
      "Ahora": 3557,
      "ES": 3558,
      "NO": 3559,
      "TA": 3560,
      "To": 3561,
      "bres": 3562,
      "ed": 3563,
      "ff": 3564,
      "iar": 3565,
      "len": 3566,
      "lismo": 3567,
      "ntes": 3568,
      "ob": 3569,
      "omin": 3570,
      "pia": 3571,
      "posiciÃ³n": 3572,
      "puestos": 3573,
      "tÃ³n": 3574,
      "viv": 3575,
      "visiÃ³n": 3576,
      "Ã§": 3577,
      "Ġk": 3578,
      "ĠÂ¡": 3579,
      "Ġdeman": 3580,
      "Ġdemas": 3581,
      "Ġdecodi": 3582,
      "Ġps": 3583,
      "ciamiento": 3584,
      "Ġlan": 3585,
      "Ġsiste": 3586,
      "Ġstatu": 3587,
      "Ġcer": 3588,
      "ard": 3589,
      "Ġeti": 3590,
      "ÃŃgenes": 3591,
      "caso": 3592,
      "Ġens": 3593,
      "âĢĿ)": 3594,
      "âĢĿ?": 3595,
      "ĠnaciÃ³n": 3596,
      "ant": 3597,
      "Ġconci": 3598,
      "Ã¡x": 3599,
      "diÃ³": 3600,
      "Ġreda": 3601,
      "Ġreco": 3602,
      "Ġrecur": 3603,
      "ĠrecepciÃ³n": 3604,
      "tubre": 3605,
      "Ġincomp": 3606,
      "ĠEcu": 3607,
      "ĠparÃ¡g": 3608,
      "ibles": 3609,
      "Ġproces": 3610,
      "Ġproyec": 3611,
      "ĠAb": 3612,
      "ĠSon": 3613,
      "tente": 3614,
      "ĠCo": 3615,
      "Ġtom": 3616,
      "Ġdestru": 3617,
      "Ġsome": 3618,
      "izante": 3619,
      "izadora": 3620,
      "Ġlogos": 3621,
      "Ġlogra": 3622,
      "Ġtradicional": 3623,
      "ĠPre": 3624,
      "ĠMi": 3625,
      "ĠLaje": 3626,
      "Ġblo": 3627,
      "Ġand": 3628,
      "ĠanalÃ©ctica": 3629,
      "lados": 3630,
      "Ġperten": 3631,
      "Ġido": 3632,
      "seÃ±": 3633,
      "Ġdiscipl": 3634,
      "Ġconstante": 3635,
      "ĠinterÃ©s": 3636,
      "Ġacto": 3637,
      "Ġrealmente": 3638,
      "Ġimpide": 3639,
      "ĠBlonde": 3640,
      "Ġglo": 3641,
      "Ġproponer": 3642,
      "concep": 3643,
      "Ġoblig": 3644,
      "ĠNim": 3645,
      "Ġfuncion": 3646,
      "clar": 3647,
      "Ġestri": 3648,
      "ÃŃsimo": 3649,
      "Ġsupera": 3650,
      "Ġmediaciones": 3651,
      "Ġposibili": 3652,
      "Ġdocu": 3653,
      "Ġmane": 3654,
      "Ġpastor": 3655,
      "Ġsociedades": 3656,
      "Ġpudi": 3657,
      "Ġdesarrollos": 3658,
      "Ġproducto": 3659,
      "ĠfilosÃ³ficas": 3660,
      "Ġambas": 3661,
      "Ġsiguiendo": 3662,
      "alabra": 3663,
      "Ġpermiti": 3664,
      "Ġplanteos": 3665,
      "ĠteÃ³ricos": 3666,
      "ĠReino": 3667,
      "Ġnegar": 3668,
      "gantes": 3669,
      "ĠXI": 3670,
      "ablemente": 3671,
      "Ġllamar": 3672,
      "Ġllamada": 3673,
      "Ġliteratura": 3674,
      "Ġ70": 3675,
      "Ġprincipio": 3676,
      "sujeto": 3677,
      "Ġ2002": 3678,
      "cristi": 3679,
      "Ġefecto": 3680,
      "ĠformulaciÃ³n": 3681,
      "ĠantropolÃ³gico": 3682,
      "Ġdenominado": 3683,
      "Ġllevado": 3684,
      "Ġimagin": 3685,
      "Ġabierta": 3686,
      "ĠexplicaciÃ³n": 3687,
      "ĠorganizaciÃ³n": 3688,
      "Ġpublicaciones": 3689,
      "Ġmodelos": 3690,
      "ĠdiscÃŃpulo": 3691,
      "Ġcapacidad": 3692,
      "Ġofre": 3693,
      "Ġconstruir": 3694,
      "Ġtendencia": 3695,
      "ĠSobre": 3696,
      "Ġllegado": 3697,
      "Ġdecidida": 3698,
      "Ġinstrumental": 3699,
      "Ġacuerdo": 3700,
      "Ġigual": 3701,
      "Ġsirve": 3702,
      "Ġplenamente": 3703,
      "Ġmilitancia": 3704,
      "Ġpeligro": 3705,
      "ĠahÃŃ": 3706,
      "Ġdetenerse": 3707,
      "Resumiendo": 3708,
      "Ġconcluyendo": 3709,
      "Ġesperanza": 3710,
      "ĠsimbÃ³lica": 3711,
      "ĠindÃŃgena": 3712,
      "ĠInstituto": 3713,
      "ĠmÃºltiples": 3714,
      "ĠBlondel": 3715,
      "ĠNimio": 3716,
      "39": 3717,
      "58": 3718,
      "61": 3719,
      "62": 3720,
      "?âĢĿ": 3721,
      "IB": 3722,
      "IS": 3723,
      "bas": 3724,
      "edi": 3725,
      "fu": 3726,
      "fun": 3727,
      "givers": 3728,
      "hesiÃ³n": 3729,
      "if": 3730,
      "ian": 3731,
      "mes": 3732,
      "maciÃ³n": 3733,
      "naciÃ³n": 3734,
      "plica": 3735,
      "vas": 3736,
      "yun": 3737,
      "ĠÃ¡n": 3738,
      "Ġleg": 3739,
      "Ġling": 3740,
      "cimientos": 3741,
      "ertura": 3742,
      "Ġata": 3743,
      "Ġafec": 3744,
      "arias": 3745,
      "tadas": 3746,
      "oria": 3747,
      "Ġecu": 3748,
      "Ġevalu": 3749,
      "untar": 3750,
      "allar": 3751,
      "Ġmie": 3752,
      "ĠmÃ¡x": 3753,
      "racionalidad": 3754,
      "Ġquehacer": 3755,
      "ĠnordatlÃ¡n": 3756,
      "moder": 3757,
      "Ġsemin": 3758,
      "ilo": 3759,
      "ilumin": 3760,
      "olver": 3761,
      "die": 3762,
      "Ġrele": 3763,
      "Ġocur": 3764,
      "Ġojos": 3765,
      "Ġcomb": 3766,
      "Ġpartes": 3767,
      "Ġnociones": 3768,
      "ciada": 3769,
      "Ġprob": 3770,
      "ĠAle": 3771,
      "ĠLiber": 3772,
      "tori": 3773,
      "ĠSol": 3774,
      "tencial": 3775,
      "Ġexa": 3776,
      "Ġtempor": 3777,
      "ĠPres": 3778,
      "Ġbre": 3779,
      "Ġano": 3780,
      "tancias": 3781,
      "Ġpobre": 3782,
      "Ġdiscernimiento": 3783,
      "Ġinterna": 3784,
      "Ġexplor": 3785,
      "Ġidealista": 3786,
      "gunas": 3787,
      "ĠFa": 3788,
      "Ã±os": 3789,
      "Ġacceso": 3790,
      "Ġapertura": 3791,
      "mani": 3792,
      "mantinos": 3793,
      "Ġimper": 3794,
      "ĠBo": 3795,
      "ĠBibl": 3796,
      "doras": 3797,
      "ĠgÃ©n": 3798,
      "Ġpropios": 3799,
      "Ġobras": 3800,
      "ĠThe": 3801,
      "soci": 3802,
      "cerdo": 3803,
      "ĠNegre": 3804,
      "Ġtri": 3805,
      "Ġsocialista": 3806,
      "Ġjunio": 3807,
      "Ġarri": 3808,
      "ctores": 3809,
      "ional": 3810,
      "Ġdependen": 3811,
      "istir": 3812,
      "Ġleer": 3813,
      "Ġtenido": 3814,
      "alizar": 3815,
      "ĠVale": 3816,
      "Ġtergivers": 3817,
      "Ġniega": 3818,
      "Ġnuestras": 3819,
      "Ġdenun": 3820,
      "ĠSalamanca": 3821,
      "ĠSalmantinos": 3822,
      "ĠhistÃ³ricamente": 3823,
      "izaciones": 3824,
      "izados": 3825,
      "ĠteorÃŃas": 3826,
      "Ġintentos": 3827,
      "Ġvalios": 3828,
      "Ġcolec": 3829,
      "Ġplantear": 3830,
      "Ġgeneraliz": 3831,
      "Ġgeneralmente": 3832,
      "Ġimportantes": 3833,
      "Ġdefine": 3834,
      "Ġmarca": 3835,
      "Ġrespuestas": 3836,
      "Ġconfron": 3837,
      "ĠmayorÃŃa": 3838,
      "ĠseÃ±alado": 3839,
      "gosto": 3840,
      "Ġelemento": 3841,
      "ĠpodrÃŃan": 3842,
      "Ġ55": 3843,
      "ĠfenÃ³menos": 3844,
      "ĠideolÃ³gicas": 3845,
      "Ġ1965": 3846,
      "Ġ1969": 3847,
      "Ġasume": 3848,
      "Ġescrito": 3849,
      "Ġescritos": 3850,
      "Ġuniversalidad": 3851,
      "historia": 3852,
      "ĠCatÃ³lica": 3853,
      "Ġbuena": 3854,
      "Ġvivir": 3855,
      "Ġfactibilidad": 3856,
      "pira": 3857,
      "Ġresulta": 3858,
      "Ġresultado": 3859,
      "ĠpresentaciÃ³n": 3860,
      "Ġdiversas": 3861,
      "Ġcapaz": 3862,
      "Ġoctubre": 3863,
      "voluntad": 3864,
      "ĠWe": 3865,
      "ĠmetodolÃ³gicas": 3866,
      "Ġderiva": 3867,
      "Ġvigencia": 3868,
      "Ġdescubrimiento": 3869,
      "ĠÃŃntima": 3870,
      "Ġinterrogantes": 3871,
      "Ġatribu": 3872,
      "Ġestilo": 3873,
      "Ġmodifica": 3874,
      "Ġfragmento": 3875,
      "Ġtremen": 3876,
      "ĠdivulgaciÃ³n": 3877,
      "Ġtestimonio": 3878,
      "modelo": 3879,
      "dudablemente": 3880,
      "ILOSOFÃįA": 3881,
      "Ġdemasiado": 3882,
      "Ġbloque": 3883,
      "ĠlingÃ¼": 3884,
      "41": 3885,
      "47": 3886,
      "70": 3887,
      "71": 3888,
      "80": 3889,
      "89": 3890,
      "OL": 3891,
      "RA": 3892,
      "Sin": 3893,
      "SegÃºn": 3894,
      "UN": 3895,
      "VIII": 3896,
      "].": 3897,
      "bu": 3898,
      "ck": 3899,
      "crÃ¡": 3900,
      "cuela": 3901,
      "form": 3902,
      "gr": 3903,
      "gular": 3904,
      "iÃ³": 3905,
      "iro": 3906,
      "itos": 3907,
      "ificar": 3908,
      "rso": 3909,
      "riendo": 3910,
      "uano": 3911,
      "ves": 3912,
      "vor": 3913,
      "zÃ³": 3914,
      "dep": 3915,
      "dero": 3916,
      "demos": 3917,
      "ender": 3918,
      "ĠdecÃŃa": 3919,
      "Ġpuesta": 3920,
      "Ġsan": 3921,
      "ĠsÃŃn": 3922,
      "Ġcerca": 3923,
      "Ġax": 3924,
      "ticiÃ³n": 3925,
      "tagon": 3926,
      "Ġecl": 3927,
      "isa": 3928,
      "inte": 3929,
      "ĠmÃŃstica": 3930,
      "ramente": 3931,
      "Ġeli": 3932,
      "Ġnorte": 3933,
      "anal": 3934,
      "Ġfi": 3935,
      "Ġcondu": 3936,
      "Ġconvertir": 3937,
      "ases": 3938,
      "ola": 3939,
      "olencia": 3940,
      "Ġsur": 3941,
      "amÃ¡": 3942,
      "teridad": 3943,
      "terios": 3944,
      "Ġparecer": 3945,
      "Ġvuel": 3946,
      "Ġvoca": 3947,
      "tiner": 3948,
      "Ġhaciendo": 3949,
      "tores": 3950,
      "uso": 3951,
      "ĠCiencias": 3952,
      "Ġexiste": 3953,
      "Ġexac": 3954,
      "Ġcuri": 3955,
      "Ġtrad": 3956,
      "ĠPer": 3957,
      "abs": 3958,
      "Ġparado": 3959,
      "ĠLatin": 3960,
      "vador": 3961,
      "Ã©rdida": 3962,
      "Ġconsign": 3963,
      "Ã±ar": 3964,
      "Ġacer": 3965,
      "viÃ©tica": 3966,
      "ĠEncuentro": 3967,
      "ĠRico": 3968,
      "Ġgu": 3969,
      "Ã©ndo": 3970,
      "ĠTor": 3971,
      "Ġrespec": 3972,
      "Ġresistencia": 3973,
      "ĠreseÃ±a": 3974,
      "ĠGeo": 3975,
      "idamente": 3976,
      "Ġqui": 3977,
      "Ġthe": 3978,
      "licto": 3979,
      "Ġesper": 3980,
      "rando": 3981,
      "ÃŃsmo": 3982,
      "Ġtrabaja": 3983,
      "Ġaborda": 3984,
      "crimin": 3985,
      "Ġmanos": 3986,
      "Ġdan": 3987,
      "Ġinsu": 3988,
      "Ġproduc": 3989,
      "ĠAllÃŃ": 3990,
      "Ġapareci": 3991,
      "Ġreflexionar": 3992,
      "mÃ¡ticamente": 3993,
      "ĠcreaciÃ³n": 3994,
      "Ġhacerse": 3995,
      "Ġjusticia": 3996,
      "Ġcaracterizar": 3997,
      "Ġmarco": 3998,
      "Ġaltera": 3999,
      "Ġcriti": 4000,
      "Ġsabe": 4001,
      "ĠmenciÃ³n": 4002,
      "Ġmayo": 4003,
      "Ġvarias": 4004,
      "Ġvoluntar": 4005,
      "Ġhistoricidad": 4006,
      "biera": 4007,
      "Ġvislu": 4008,
      "ĠprÃ¡cticamente": 4009,
      "Ġdiferentes": 4010,
      "autÃ©n": 4011,
      "Ġconstituyen": 4012,
      "fÃŃsico": 4013,
      "ĠdecisiÃ³n": 4014,
      "Ġcontinente": 4015,
      "ĠÃ¡re": 4016,
      "Ġalcance": 4017,
      "Ġmostrado": 4018,
      "ĠestarÃŃa": 4019,
      "Ġreduce": 4020,
      "ĠreducciÃ³n": 4021,
      "Ġestablece": 4022,
      "Ġapuntar": 4023,
      "ĠartÃŃculos": 4024,
      "Ġbuscar": 4025,
      "Ġposteriormente": 4026,
      "Ġderecho": 4027,
      "ĠautÃ©ntico": 4028,
      "ĠÃīste": 4029,
      "Ġresponder": 4030,
      "Ġabsoluto": 4031,
      "Ġsubrayar": 4032,
      "ĠAlberdi": 4033,
      "Ġejerci": 4034,
      "Ġantecedente": 4035,
      "Ġtorno": 4036,
      "Ġigualmente": 4037,
      "Ġprioridad": 4038,
      "Ġplenitud": 4039,
      "Ġequivo": 4040,
      "Ġinstitucional": 4041,
      "ĠespecÃŃfico": 4042,
      "Ġrasgos": 4043,
      "Ġvertientes": 4044,
      "TeologÃŃa": 4045,
      "ĠSociologÃŃa": 4046,
      "filosÃ³fico": 4047,
      "ĠÃ³ntico": 4048,
      "ĠsÃŃmbolo": 4049,
      "Ġindispens": 4050,
      "ĠopiniÃ³n": 4051,
      "Ġrequer": 4052,
      "Ġreaccion": 4053,
      "ĠaplicaciÃ³n": 4054,
      "ĠparÃ¡grafo": 4055,
      "ĠGeocultura": 4056,
      "43": 4057,
      "57": 4058,
      "72": 4059,
      "Ar": 4060,
      "CY": 4061,
      "Su": 4062,
      "don": 4063,
      "ele": 4064,
      "gida": 4065,
      "grupo": 4066,
      "hn": 4067,
      "iologÃŃa": 4068,
      "lÃ©": 4069,
      "nhe": 4070,
      "otro": 4071,
      "pan": 4072,
      "prensiÃ³n": 4073,
      "ror": 4074,
      "ts": 4075,
      "utas": 4076,
      "ye": 4077,
      "yes": 4078,
      "zan": 4079,
      "zada": 4080,
      "entaciÃ³n": 4081,
      "Ġpan": 4082,
      "ĠpÃº": 4083,
      "Ġcf": 4084,
      "Ġag": 4085,
      "ĠatrÃ¡s": 4086,
      "oniendo": 4087,
      "tia": 4088,
      "ĠequÃŃ": 4089,
      "capital": 4090,
      "queza": 4091,
      "indi": 4092,
      "Ġmin": 4093,
      "Ġmueve": 4094,
      "dol": 4095,
      "âĢĿ;": 4096,
      "anza": 4097,
      "Ġfo": 4098,
      "Ġfir": 4099,
      "Ġfech": 4100,
      "Ġunas": 4101,
      "olpe": 4102,
      "Ġreun": 4103,
      "Ġintra": 4104,
      "Ġinjus": 4105,
      "Ġcoyun": 4106,
      "rio": 4107,
      "rito": 4108,
      "Ġnotas": 4109,
      "Ġaltura": 4110,
      "Ġvin": 4111,
      "Ġprotagon": 4112,
      "ilosofar": 4113,
      "idez": 4114,
      "quista": 4115,
      "iada": 4116,
      "iamente": 4117,
      "Ġdespre": 4118,
      "Ġcuad": 4119,
      "Ġcurso": 4120,
      "Ġtecn": 4121,
      "ĠteÃ³logos": 4122,
      "mbrar": 4123,
      "aban": 4124,
      "abrÃŃa": 4125,
      "ficial": 4126,
      "Ġdicha": 4127,
      "tario": 4128,
      "Ġperuano": 4129,
      "ĠserÃ¡n": 4130,
      "Ġconsiste": 4131,
      "Ġsinte": 4132,
      "Ġsingular": 4133,
      "ĠFern": 4134,
      "ĠHer": 4135,
      "ducaciÃ³n": 4136,
      "Ġapre": 4137,
      "Ġguer": 4138,
      "Ġresolver": 4139,
      "Ã¡nica": 4140,
      "ĠGra": 4141,
      "ĠNi": 4142,
      "ĠNaciÃ³n": 4143,
      "Ġmuer": 4144,
      "Ġquo": 4145,
      "Ġquis": 4146,
      "Ġopciones": 4147,
      "licos": 4148,
      "gui": 4149,
      "clase": 4150,
      "carse": 4151,
      "Ġespon": 4152,
      "ieren": 4153,
      "bajo": 4154,
      "ĠorÃŃgenes": 4155,
      "Ġhomo": 4156,
      "Ġluchas": 4157,
      "Ġ35": 4158,
      "Ġconsider": 4159,
      "ĠcrÃŃticamente": 4160,
      "Ġinstancia": 4161,
      "todox": 4162,
      "ĠVal": 4163,
      "Ġpub": 4164,
      "Ġadquiere": 4165,
      "Ġcrecimiento": 4166,
      "berto": 4167,
      "tonio": 4168,
      "tonomÃŃa": 4169,
      "ariamente": 4170,
      "Ġplanteamientos": 4171,
      "Ġlugares": 4172,
      "Ġhumanidad": 4173,
      "Ġcaracteres": 4174,
      "ĠcaracterizaciÃ³n": 4175,
      "Ġdominio": 4176,
      "polÃŃtico": 4177,
      "Ġconfigura": 4178,
      "Ġencuad": 4179,
      "parece": 4180,
      "Ġtareas": 4181,
      "Ġeuropeos": 4182,
      "Ġelemental": 4183,
      "ĠCuando": 4184,
      "Ġelaborado": 4185,
      "Ġdiferen": 4186,
      "auto": 4187,
      "Ġidentificar": 4188,
      "ÃŃtulos": 4189,
      "Ġnuevamente": 4190,
      "Ġculturales": 4191,
      "ĠCasas": 4192,
      "Ġcomplementar": 4193,
      "Ġesfuerzos": 4194,
      "opciÃ³n": 4195,
      "Ġavanza": 4196,
      "histori": 4197,
      "Ġacepta": 4198,
      "Ġobjetividad": 4199,
      "Ġcomprende": 4200,
      "Ġmencionado": 4201,
      "Ġintroduce": 4202,
      "Ġimposibilidad": 4203,
      "Ġestructurales": 4204,
      "Ġretomado": 4205,
      "ĠconstrucciÃ³n": 4206,
      "ĠcontemporÃ¡neo": 4207,
      "Ġhegeliano": 4208,
      "Ġdestaca": 4209,
      "Ġverdadero": 4210,
      "Ġreno": 4211,
      "Ġconsecuencia": 4212,
      "ĠidentificaciÃ³n": 4213,
      "Ġpermanentemente": 4214,
      "itaria": 4215,
      "ĠLuis": 4216,
      "Ġcentrales": 4217,
      "discernimiento": 4218,
      "Ġconexiones": 4219,
      "Ġdescubrir": 4220,
      "Ġextens": 4221,
      "ĠIdem": 4222,
      "Ġpriori": 4223,
      "Ġcorresponde": 4224,
      "Ġforman": 4225,
      "Ġoportunidad": 4226,
      "Ġexplicitar": 4227,
      "ĠacadÃ©micas": 4228,
      "Ġlograr": 4229,
      "Ġconceb": 4230,
      "Ġobrera": 4231,
      "Ġdependiente": 4232,
      "ĠpequeÃ±o": 4233,
      "ĠaproximaciÃ³n": 4234,
      "Ġinmediato": 4235,
      "estructura": 4236,
      "arquÃŃa": 4237,
      "Ġcoinci": 4238,
      "ĠalienaciÃ³n": 4239,
      "Ġapoyo": 4240,
      "Ġgeneraciones": 4241,
      "ĠfÃ¡cil": 4242,
      "Ġviolencia": 4243,
      "Ġdistancia": 4244,
      "Ġcumplir": 4245,
      "Ġacontecimientos": 4246,
      "ĠpedagÃ³gica": 4247,
      "Ġheideggeriana": 4248,
      "ĠconvicciÃ³n": 4249,
      "ĠPanamÃ¡": 4250,
      "ĠutÃ³pico": 4251,
      "Ġsuelen": 4252,
      "Ġpastoral": 4253,
      "tinerario": 4254,
      "Ġcuadro": 4255,
      "ĠFernando": 4256,
      "63": 4257,
      "65": 4258,
      "79": 4259,
      "99": 4260,
      "Am": 4261,
      "DI": 4262,
      "Des": 4263,
      "GEN": 4264,
      "In": 4265,
      "MA": 4266,
      "ON": 4267,
      "Po": 4268,
      "Pro": 4269,
      "ade": 4270,
      "aÃ±o": 4271,
      "ation": 4272,
      "bur": 4273,
      "cle": 4274,
      "ctas": 4275,
      "cencia": 4276,
      "cno": 4277,
      "dÃŃa": 4278,
      "dras": 4279,
      "eur": 4280,
      "filÃ³sof": 4281,
      "gada": 4282,
      "imen": 4283,
      "jal": 4284,
      "lin": 4285,
      "midad": 4286,
      "mundo": 4287,
      "nas": 4288,
      "oa": 4289,
      "tÃºa": 4290,
      "udad": 4291,
      "umer": 4292,
      "vin": 4293,
      "Ġru": 4294,
      "Ġeran": 4295,
      "end": 4296,
      "Ġdedu": 4297,
      "ĠdetrÃ¡s": 4298,
      "Ġdevenir": 4299,
      "Ġpene": 4300,
      "Ġpie": 4301,
      "ermani": 4302,
      "Ġlabor": 4303,
      "Ġsens": 4304,
      "Ġsolu": 4305,
      "ĠsoluciÃ³n": 4306,
      "Ġcerra": 4307,
      "Ġate": 4308,
      "arÃŃa": 4309,
      "onum": 4310,
      "tiendo": 4311,
      "tamento": 4312,
      "ork": 4313,
      "ueba": 4314,
      "Ġeuf": 4315,
      "cad": 4316,
      "camb": 4317,
      "una": 4318,
      "Ġentrar": 4319,
      "Ġester": 4320,
      "Ġescu": 4321,
      "Ġestre": 4322,
      "raciÃ³n": 4323,
      "Ġconden": 4324,
      "Ġconclu": 4325,
      "Ġhora": 4326,
      "mote": 4327,
      "Ġsepar": 4328,
      "Ġsecular": 4329,
      "Ã©di": 4330,
      "Ġreino": 4331,
      "Ġinco": 4332,
      "Ġinel": 4333,
      "Ġintr": 4334,
      "Ġinfin": 4335,
      "ienta": 4336,
      "dadores": 4337,
      "tercer": 4338,
      "Ġprogres": 4339,
      "mado": 4340,
      "uls": 4341,
      "igo": 4342,
      "ĠSch": 4343,
      "Ġ12": 4344,
      "ella": 4345,
      "ĠCr": 4346,
      "ĠChil": 4347,
      "quie": 4348,
      "Ġdestino": 4349,
      "Ġdesvi": 4350,
      "Ġlogo": 4351,
      "Ġlocal": 4352,
      "Ġtradu": 4353,
      "mbros": 4354,
      "cede": 4355,
      "ĠMon": 4356,
      "ĠMir": 4357,
      "ĠMuy": 4358,
      "Ġbal": 4359,
      "Ġperiferia": 4360,
      "americana": 4361,
      "Ġconser": 4362,
      "Ġpostura": 4363,
      "ĠEstos": 4364,
      "Ġinterven": 4365,
      "Ġinterpel": 4366,
      "ficamente": 4367,
      "ĠFrente": 4368,
      "ĠFCE": 4369,
      "ĠHernÃ¡ndez": 4370,
      "vieron": 4371,
      "ĠRica": 4372,
      "ĠBa": 4373,
      "Ġgar": 4374,
      "Ġgolpe": 4375,
      "Ġpropuesto": 4376,
      "ĠTella": 4377,
      "Ġcitar": 4378,
      "Ġtipos": 4379,
      "ĠtÃŃ": 4380,
      "Ġmisterio": 4381,
      "guÃ©s": 4382,
      "ierro": 4383,
      "ÃŃstico": 4384,
      "Ġplus": 4385,
      "âĢĶ,": 4386,
      "Ġnadie": 4387,
      "beiro": 4388,
      "ĠpolÃŃticamente": 4389,
      "Ġpresunta": 4390,
      "Ġabor": 4391,
      "cribir": 4392,
      "Ġdoctrina": 4393,
      "Ġcambi": 4394,
      "Ġdando": 4395,
      "olÃ³gicas": 4396,
      "Ġpautas": 4397,
      "ontologÃŃa": 4398,
      "Ġinsta": 4399,
      "logos": 4400,
      "Ġexpresamente": 4401,
      "Ġdifundi": 4402,
      "ĠÃºltimas": 4403,
      "Ġtales": 4404,
      "Estas": 4405,
      "ĠSalta": 4406,
      "Ġ[...]âĢĿ": 4407,
      "Ġambigu": 4408,
      "Ġvalidez": 4409,
      "Ġpermitir": 4410,
      "Ġfinalmente": 4411,
      "ĠMÃ©todo": 4412,
      "Ġconcretas": 4413,
      "Ġriqueza": 4414,
      "Ġmarzo": 4415,
      "Ġmarcada": 4416,
      "Ġdominador": 4417,
      "Ġconflicto": 4418,
      "Ġsabido": 4419,
      "Ġponencias": 4420,
      "Ġencubri": 4421,
      "ĠautocrÃŃtica": 4422,
      "ĠCuarto": 4423,
      "mplemente": 4424,
      "Ġllama": 4425,
      "Ġactualidad": 4426,
      "Ġdeterminar": 4427,
      "ĠmetodolÃ³gico": 4428,
      "Ġobservar": 4429,
      "Ġ60": 4430,
      "Ġcompleta": 4431,
      "Ġprincipios": 4432,
      "ĠXXX": 4433,
      "ĠLeÃ³n": 4434,
      "Ġjuz": 4435,
      "Ġalcanza": 4436,
      "Ġpreguntarse": 4437,
      "ĠteÃ³ricamente": 4438,
      "Ġenfrentar": 4439,
      "Ġmenciona": 4440,
      "ĠSimplemente": 4441,
      "Ġimperialista": 4442,
      "Ġdescubre": 4443,
      "Ġcomenzar": 4444,
      "Ġrealizado": 4445,
      "ĠPareciera": 4446,
      "ĠpublicaciÃ³n": 4447,
      "Ġescamote": 4448,
      "Ġdimensiones": 4449,
      "Ġsacerdo": 4450,
      "Ġestructuralismo": 4451,
      "Ġpresentar": 4452,
      "DEL": 4453,
      "Ġinvestigaciones": 4454,
      "Ġfactores": 4455,
      "ĠpostulaciÃ³n": 4456,
      "tribu": 4457,
      "Ġreconoce": 4458,
      "Ġolvida": 4459,
      "Ġcircular": 4460,
      "Ġresponsab": 4461,
      "Ġburguesa": 4462,
      "Ġdirectamente": 4463,
      "Ġincorporar": 4464,
      "Ġejercer": 4465,
      "Ġmoderno": 4466,
      "Ġinstrumento": 4467,
      "ĠautÃ©nticamente": 4468,
      "Ġsumamente": 4469,
      "Ġdespla": 4470,
      "ĠclÃ¡sica": 4471,
      "Ġpeligros": 4472,
      "Ġingenuidad": 4473,
      "tÃ¡neo": 4474,
      "Ġdependientes": 4475,
      "Ġaproxima": 4476,
      "colonial": 4477,
      "estructural": 4478,
      "Ġcoinciden": 4479,
      "imperialista": 4480,
      "Ġfidelidad": 4481,
      "ĠPensamiento": 4482,
      "Ġcampesinos": 4483,
      "ĠfenomenologÃŃa": 4484,
      "Ġsospecha": 4485,
      "Ġulteriores": 4486,
      "ĠCambeiro": 4487,
      "Ġparadig": 4488,
      "Ġbastardo": 4489,
      "Ġextrema": 4490,
      "ĠMorelia": 4491,
      "Ġconsultar": 4492,
      "Ġerror": 4493,
      "ĠSartre": 4494,
      "ĠobstÃ¡culo": 4495,
      "Ġdemanda": 4496,
      "Ġeticista": 4497,
      "Ġprocesos": 4498,
      "Ġproyectos": 4499,
      "Ġdecididamente": 4500,
      "ĠnordatlÃ¡ntico": 4501,
      "Ġbreve": 4502,
      "ĠBiblia": 4503,
      "Ġcriticar": 4504,
      "Ġindispensable": 4505,
      "CYDEL": 4506,
      "Ġcoyuntura": 4507,
      "ĠChile": 4508,
      "64": 4509,
      "77": 4510,
      "86": 4511,
      "90": 4512,
      "91": 4513,
      "?âĢĿ,": 4514,
      "Ante": 4515,
      "EL": 4516,
      "Que": 4517,
      "RI": 4518,
      "Sector": 4519,
      "TambiÃ©n": 4520,
      "Tercer": 4521,
      "ajen": 4522,
      "bel": 4523,
      "blico": 4524,
      "cs": 4525,
      "dÃ©": 4526,
      "dista": 4527,
      "ema": 4528,
      "gis": 4529,
      "gas": 4530,
      "iempo": 4531,
      "ianos": 4532,
      "lle": 4533,
      "oz": 4534,
      "puesta": 4535,
      "rus": 4536,
      "sin": 4537,
      "sas": 4538,
      "senti": 4539,
      "sito": 4540,
      "tti": 4541,
      "vesti": 4542,
      "zando": 4543,
      "Ġz": 4544,
      "Ġer": 4545,
      "demi": 4546,
      "enas": 4547,
      "Ġdemos": 4548,
      "Ġpier": 4549,
      "Ġpuer": 4550,
      "Ġpsic": 4551,
      "cipa": 4552,
      "eras": 4553,
      "osamente": 4554,
      "osiciones": 4555,
      "Ġsilen": 4556,
      "Ġchil": 4557,
      "Ġaco": 4558,
      "Ġacomp": 4559,
      "Ġampli": 4560,
      "Ġasegu": 4561,
      "Ġagosto": 4562,
      "taba": 4563,
      "tativas": 4564,
      "orman": 4565,
      "Ġemo": 4566,
      "Ġechar": 4567,
      "ĠenseÃ±": 4568,
      "Ġenajen": 4569,
      "Ġesclar": 4570,
      "ala": 4571,
      "alib": 4572,
      "ini": 4573,
      "inidad": 4574,
      "Ġmes": 4575,
      "Ġmec": 4576,
      "Ġmientras": 4577,
      "Ġquedar": 4578,
      "Ġeleg": 4579,
      "ÃŃamos": 4580,
      "ance": 4581,
      "Ġunos": 4582,
      "Ġuniversidad": 4583,
      "Ġconver": 4584,
      "Ġconcen": 4585,
      "Ã¡mica": 4586,
      "movimiento": 4587,
      "Ġseme": 4588,
      "Ġseptiembre": 4589,
      "ollo": 4590,
      "menes": 4591,
      "dialÃ©ctica": 4592,
      "Ġinval": 4593,
      "ĠinÃ©di": 4594,
      "Ġoca": 4595,
      "rimer": 4596,
      "Ġparecen": 4597,
      "Ġvolu": 4598,
      "ult": 4599,
      "tinas": 4600,
      "ĠLuego": 4601,
      "ĠdÃŃas": 4602,
      "ĠSa": 4603,
      "ĠCentro": 4604,
      "cuestiÃ³n": 4605,
      "ĠPol": 4606,
      "ĠPueblo": 4607,
      "ĠPau": 4608,
      "ĠMo": 4609,
      "ĠLamentablemente": 4610,
      "Ġestamos": 4611,
      "Ġdia": 4612,
      "Ġdio": 4613,
      "tantes": 4614,
      "lada": 4615,
      "Ġperf": 4616,
      "Ġperder": 4617,
      "Ġconsol": 4618,
      "ĠEstrada": 4619,
      "Ġexpone": 4620,
      "araciones": 4621,
      "ĠFre": 4622,
      "ĠFunda": 4623,
      "ĠFierro": 4624,
      "ĠacrÃŃtica": 4625,
      "dura": 4626,
      "viera": 4627,
      "Ġaportan": 4628,
      "cionalismo": 4629,
      "Ġimporta": 4630,
      "ĠBol": 4631,
      "ĠBonum": 4632,
      "Ã©ndice": 4633,
      "cons": 4634,
      "ĠTiempo": 4635,
      "deros": 4636,
      "Ġmutu": 4637,
      "Ġcivil": 4638,
      "ĠtÃ¡": 4639,
      "lido": 4640,
      "curso": 4641,
      "Ġtantos": 4642,
      "ieron": 4643,
      "ÃŃsima": 4644,
      "ĠhabÃŃan": 4645,
      "Ġsupre": 4646,
      "Ġtrataba": 4647,
      "Ġrevis": 4648,
      "ĠrevisiÃ³n": 4649,
      "ĠUNAM": 4650,
      "render": 4651,
      "Ġcasos": 4652,
      "Ġdoble": 4653,
      "Ġpasos": 4654,
      "ĠJung": 4655,
      "ĠJoa": 4656,
      "Ġfundante": 4657,
      "ĠfundamentaciÃ³n": 4658,
      "Ġtenemos": 4659,
      "Ġnecesidades": 4660,
      "Ġnecesita": 4661,
      "ÃŃnse": 4662,
      "Ġcaptar": 4663,
      "ĠVil": 4664,
      "ĠYork": 4665,
      "Ġhubiera": 4666,
      "Ġdistinto": 4667,
      "Ġpronto": 4668,
      "ĠprÃ³logo": 4669,
      "Ġconstituir": 4670,
      "Ġnacionalista": 4671,
      "Ġcreciente": 4672,
      "Ġcabo": 4673,
      "rasil": 4674,
      "ĠUnivers": 4675,
      "Ġpermita": 4676,
      "Ġcolo": 4677,
      "Ġpretensiones": 4678,
      "rupciÃ³n": 4679,
      "Ġplantearse": 4680,
      "ĠGuada": 4681,
      "Ġdominante": 4682,
      "Ġcriterios": 4683,
      "Ġfuentes": 4684,
      "Ġpositivo": 4685,
      "Ġconform": 4686,
      "prof": 4687,
      "explica": 4688,
      "Ġ47": 4689,
      "Ġcategor": 4690,
      "ĠhistoriogrÃ¡fica": 4691,
      "Ġpeor": 4692,
      "erialismo": 4693,
      "tisfa": 4694,
      "Ġcentra": 4695,
      "ĠprÃ¡cticas": 4696,
      "Ġdiferencias": 4697,
      "Ġcomunes": 4698,
      "ĠcomunicaciÃ³n": 4699,
      "Ġherman": 4700,
      "Ġabsur": 4701,
      "ĠFrancf": 4702,
      "ĠprecisiÃ³n": 4703,
      "ĠXXVIII": 4704,
      "Ġavance": 4705,
      "Ġrevolucionarios": 4706,
      "rimido": 4707,
      "ĠaceptaciÃ³n": 4708,
      "ontevide": 4709,
      "ĠevoluciÃ³n": 4710,
      "Ġenfoques": 4711,
      "ĠlÃŃder": 4712,
      "Ġsostiene": 4713,
      "ĠpolÃ©micas": 4714,
      "Ġsolo": 4715,
      "Ġhici": 4716,
      "Ġejemplos": 4717,
      "ĠanalÃ³gica": 4718,
      "Ġfactible": 4719,
      "Ġutiliza": 4720,
      "ferencia": 4721,
      "Ġservir": 4722,
      "Ġ1984": 4723,
      "Ġperspectivas": 4724,
      "Ġpresentado": 4725,
      "ĠbÃ¡sicos": 4726,
      "ERICA": 4727,
      "ERACIÃĵN": 4728,
      "Ġentenderse": 4729,
      "ĠacadÃ©mico": 4730,
      "Ġabsoluta": 4731,
      "Ġabsolutamente": 4732,
      "Ġcriticado": 4733,
      "Ġindividuo": 4734,
      "Ġindividual": 4735,
      "Ġconoce": 4736,
      "Ġdificultad": 4737,
      "Ġvigente": 4738,
      "ĠespaÃ±": 4739,
      "ĠIdeas": 4740,
      "Ã¡ndola": 4741,
      "Ġequiv": 4742,
      "Ġnegativo": 4743,
      "Ġfecunda": 4744,
      "Ġoportunamente": 4745,
      "Ġriguroso": 4746,
      "Ġatribuye": 4747,
      "Ġpersonal": 4748,
      "hombre": 4749,
      "ordin": 4750,
      "ĠorientaciÃ³n": 4751,
      "Ġurgencia": 4752,
      "Ġincluir": 4753,
      "Ġdesenvol": 4754,
      "Ġcolaborar": 4755,
      "Ġeficacia": 4756,
      "Ġrecordar": 4757,
      "ĠanalogÃŃa": 4758,
      "interpre": 4759,
      "Ġexclusivamente": 4760,
      "Ġausencia": 4761,
      "problemÃ¡tica": 4762,
      "Ġromper": 4763,
      "Ãīs": 4764,
      "Ġayu": 4765,
      "ĠÃ©lites": 4766,
      "Ġreclama": 4767,
      "rimera": 4768,
      "ĠexplotaciÃ³n": 4769,
      "Ġabrirse": 4770,
      "ĠtendrÃ¡": 4771,
      "Ġpreocupaciones": 4772,
      "AMERICA": 4773,
      "Ġrecuper": 4774,
      "ĠGonzalo": 4775,
      "ĠredacciÃ³n": 4776,
      "Ġglobal": 4777,
      "Ġpudiera": 4778,
      "Ġecuator": 4779,
      "Ġtriun": 4780,
      "ĠlingÃ¼ÃŃstica": 4781,
      "abstra": 4782,
      "Ġesperar": 4783,
      "Ġejercicio": 4784,
      "dolfo": 4785,
      "Ġvincul": 4786,
      "AmÃ©rica": 4787,
      "Ġineludi": 4788,
      "ĠtÃŃp": 4789,
      "Ġabordar": 4790,
      "Ġvolumen": 4791,
      "ĠJoaquÃŃn": 4792,
      "ĠFrancfort": 4793,
      ")âĢĿ,": 4794,
      ".)": 4795,
      "68": 4796,
      "69": 4797,
      "73": 4798,
      "74": 4799,
      "75": 4800,
      "81": 4801,
      "85": 4802,
      "92": 4803,
      "93": 4804,
      "94": 4805,
      "BA": 4806,
      "Car": 4807,
      "Pres": 4808,
      "Pueblo": 4809,
      "San": 4810,
      "aos": 4811,
      "aÃ±": 4812,
      "ben": 4813,
      "cÃŃ": 4814,
      "cla": 4815,
      "cÃ³mo": 4816,
      "dri": 4817,
      "dvi": 4818,
      "drÃŃa": 4819,
      "darse": 4820,
      "flex": 4821,
      "hi": 4822,
      "hÃŃ": 4823,
      "idi": 4824,
      "idar": 4825,
      "mia": 4826,
      "mman": 4827,
      "mero": 4828,
      "ner": 4829,
      "omi": 4830,
      "ptica": 4831,
      "rÃŃ": 4832,
      "rican": 4833,
      "sch": 4834,
      "uto": 4835,
      "umi": 4836,
      "uhn": 4837,
      "vech": 4838,
      "yo": 4839,
      "Ãª": 4840,
      "Ãµ": 4841,
      "ĠÃ³": 4842,
      "Ġib": 4843,
      "detti": 4844,
      "Ġdedi": 4845,
      "Ġdefi": 4846,
      "Ġlide": 4847,
      "Ġpra": 4848,
      "ĠpÃ©rdida": 4849,
      "osta": 4850,
      "Ġsen": 4851,
      "Ġsac": 4852,
      "Ġais": 4853,
      "Ġatra": 4854,
      "ari": 4855,
      "onerse": 4856,
      "Ã³ven": 4857,
      "orama": 4858,
      "uede": 4859,
      "ÃŃrica": 4860,
      "tec": 4861,
      "tel": 4862,
      "teles": 4863,
      "camente": 4864,
      "isÃŃ": 4865,
      "iseo": 4866,
      "davÃŃa": 4867,
      "Ġenci": 4868,
      "Ġenter": 4869,
      "Ġentes": 4870,
      "Ġenem": 4871,
      "Ġestu": 4872,
      "all": 4873,
      "Ġmito": 4874,
      "rada": 4875,
      "Ġyo": 4876,
      "âĢĿ:": 4877,
      "anÃ¡lisis": 4878,
      "Ġfre": 4879,
      "Ġfas": 4880,
      "Ġfase": 4881,
      "Ġfrus": 4882,
      "Ġconta": 4883,
      "Ġconlle": 4884,
      "mover": 4885,
      "diz": 4886,
      "didos": 4887,
      "didas": 4888,
      "dientes": 4889,
      "Ġrector": 4890,
      "Ġretener": 4891,
      "Ġinca": 4892,
      "trando": 4893,
      "lecciÃ³n": 4894,
      "riÃ³": 4895,
      "ĠEN": 4896,
      "ĠEcon": 4897,
      "ecÃŃa": 4898,
      "Ġvia": 4899,
      "Ġvivo": 4900,
      "Ġvienen": 4901,
      "resura": 4902,
      "ticas": 4903,
      "ĠLIB": 4904,
      "igue": 4905,
      "ĠdÃŃa": 4906,
      "Ġdussel": 4907,
      "torio": 4908,
      "ĠSÃŃgue": 4909,
      "Ġtomo": 4910,
      "Ġdesper": 4911,
      "Ġtecno": 4912,
      "ĠPos": 4913,
      "ĠPab": 4914,
      "ĠPues": 4915,
      "ĠPalabra": 4916,
      "icando": 4917,
      "ĠanalÃ©ctico": 4918,
      "Ġdicta": 4919,
      "Ġdiciendo": 4920,
      "Ġdiciembre": 4921,
      "Ġpodido": 4922,
      "Ġpobres": 4923,
      "testa": 4924,
      "ĠDer": 4925,
      "chos": 4926,
      "dencia": 4927,
      "Ġitinerario": 4928,
      "Ġmotiva": 4929,
      "Ġdiscre": 4930,
      "Ġdispon": 4931,
      "Ġpensado": 4932,
      "Ġpensador": 4933,
      "Ġsimul": 4934,
      "Ã©rtase": 4935,
      "Ġpose": 4936,
      "ĠEstudios": 4937,
      "aracas": 4938,
      "gunos": 4939,
      "ĠFal": 4940,
      "ĠFILOSOFÃįA": 4941,
      "ĠHen": 4942,
      "Ġactuar": 4943,
      "vido": 4944,
      "viembre": 4945,
      "bach": 4946,
      "Ġcron": 4947,
      "ĠcrÃŃticos": 4948,
      "Ġapresura": 4949,
      "mito": 4950,
      "micos": 4951,
      "Ġrealidades": 4952,
      "Ġimpres": 4953,
      "ĠBer": 4954,
      "ĠBorda": 4955,
      "Ġgan": 4956,
      "Ġpropiedad": 4957,
      "Ã©ndose": 4958,
      "egan": 4959,
      "Ġasunto": 4960,
      "Ġasign": 4961,
      "Ġresta": 4962,
      "ĠGermani": 4963,
      "desde": 4964,
      "ĠquiÃ©n": 4965,
      "Ġquie": 4966,
      "Ġquere": 4967,
      "ĠautonomÃŃa": 4968,
      "ĠproblemÃ¡tico": 4969,
      "limin": 4970,
      "Ġcompon": 4971,
      "ĠAmelia": 4972,
      "ĠjÃ³ven": 4973,
      "Ġpartiendo": 4974,
      "ÃŃsta": 4975,
      "Ġmagn": 4976,
      "Ġnaciones": 4977,
      "ĠhistÃ³ricos": 4978,
      "Ġraz": 4979,
      "Ġmedia": 4980,
      "Ġtratado": 4981,
      "Ġabar": 4982,
      "Ġabril": 4983,
      "rump": 4984,
      "Ġalguno": 4985,
      "Ġdog": 4986,
      "Ġ33": 4987,
      "Ġ38": 4988,
      "Ġlee": 4989,
      "Ġpasando": 4990,
      "Ġcomer": 4991,
      "Ġtengo": 4992,
      "Ġtenga": 4993,
      "Ġllev": 4994,
      "ĠRomero": 4995,
      "Ġinscribe": 4996,
      "logismo": 4997,
      "ĠCons": 4998,
      "ĠConte": 4999
    },
    "merges": [
      [
        "d",
        "e"
      ],
      [
        "e",
        "n"
      ],
      [
        "Ġ",
        "de"
      ],
      [
        "Ġ",
        "l"
      ],
      [
        "Ġ",
        "p"
      ],
      [
        "e",
        "s"
      ],
      [
        "c",
        "i"
      ],
      [
        "e",
        "r"
      ],
      [
        "o",
        "s"
      ],
      [
        "Ġl",
        "a"
      ],
      [
        "Ġ",
        "s"
      ],
      [
        "Ġ",
        "c"
      ],
      [
        "Ġ",
        "a"
      ],
      [
        "a",
        "r"
      ],
      [
        "o",
        "n"
      ],
      [
        "Ã",
        "³"
      ],
      [
        "â",
        "Ģ"
      ],
      [
        "t",
        "i"
      ],
      [
        "t",
        "a"
      ],
      [
        "o",
        "r"
      ],
      [
        "u",
        "e"
      ],
      [
        "Ġ",
        "e"
      ],
      [
        "Ã",
        "Ń"
      ],
      [
        "t",
        "e"
      ],
      [
        "c",
        "a"
      ],
      [
        "i",
        "s"
      ],
      [
        "u",
        "n"
      ],
      [
        "r",
        "e"
      ],
      [
        "d",
        "a"
      ],
      [
        "t",
        "o"
      ],
      [
        "Ã³",
        "n"
      ],
      [
        "Ġ",
        "en"
      ],
      [
        "q",
        "ue"
      ],
      [
        "Ġ",
        "es"
      ],
      [
        "a",
        "l"
      ],
      [
        "i",
        "n"
      ],
      [
        "Ġ",
        "m"
      ],
      [
        "r",
        "a"
      ],
      [
        "d",
        "o"
      ],
      [
        "Ġ",
        "que"
      ],
      [
        "Ġe",
        "l"
      ],
      [
        "ci",
        "Ã³n"
      ],
      [
        "Ġ",
        "y"
      ],
      [
        "Ġ",
        "âĢ"
      ],
      [
        "ÃŃ",
        "a"
      ],
      [
        "âĢ",
        "Ŀ"
      ],
      [
        "Ġ",
        "n"
      ],
      [
        "ĠâĢ",
        "ľ"
      ],
      [
        "a",
        "n"
      ],
      [
        "Ġ",
        "f"
      ],
      [
        "i",
        "ca"
      ],
      [
        "Ġ",
        "un"
      ],
      [
        "Ġc",
        "on"
      ],
      [
        "r",
        "o"
      ],
      [
        "Ã",
        "¡"
      ],
      [
        "a",
        "s"
      ],
      [
        "Ġ",
        "h"
      ],
      [
        "m",
        "o"
      ],
      [
        "Ġs",
        "e"
      ],
      [
        "i",
        "l"
      ],
      [
        "Ã",
        "©"
      ],
      [
        "o",
        "l"
      ],
      [
        "m",
        "en"
      ],
      [
        "d",
        "i"
      ],
      [
        "Ġ",
        "re"
      ],
      [
        "Ġde",
        "l"
      ],
      [
        "t",
        "u"
      ],
      [
        "Ġs",
        "u"
      ],
      [
        "Ġ",
        "in"
      ],
      [
        "a",
        "ciÃ³n"
      ],
      [
        "Ġ",
        "o"
      ],
      [
        "t",
        "ra"
      ],
      [
        "i",
        "en"
      ],
      [
        "da",
        "d"
      ],
      [
        "a",
        "m"
      ],
      [
        "Ġc",
        "o"
      ],
      [
        "l",
        "e"
      ],
      [
        "il",
        "os"
      ],
      [
        "c",
        "o"
      ],
      [
        "Ġun",
        "a"
      ],
      [
        "r",
        "i"
      ],
      [
        "Ġ",
        "E"
      ],
      [
        "o",
        "f"
      ],
      [
        "t",
        "er"
      ],
      [
        "Ġp",
        "ar"
      ],
      [
        "Ġp",
        "or"
      ],
      [
        "Ġn",
        "o"
      ],
      [
        "e",
        "c"
      ],
      [
        "l",
        "o"
      ],
      [
        "ci",
        "on"
      ],
      [
        "Ġa",
        "l"
      ],
      [
        "Ġ",
        "v"
      ],
      [
        "i",
        "b"
      ],
      [
        "m",
        "p"
      ],
      [
        "ci",
        "a"
      ],
      [
        "Ġp",
        "ro"
      ],
      [
        "ilos",
        "of"
      ],
      [
        "men",
        "te"
      ],
      [
        "Ġ",
        "A"
      ],
      [
        "m",
        "a"
      ],
      [
        "Ġl",
        "os"
      ],
      [
        "u",
        "l"
      ],
      [
        "ti",
        "n"
      ],
      [
        "r",
        "es"
      ],
      [
        "ti",
        "ca"
      ],
      [
        "Ġ",
        "L"
      ],
      [
        "i",
        "dad"
      ],
      [
        "ilosof",
        "ÃŃa"
      ],
      [
        "i",
        "de"
      ],
      [
        "Ġla",
        "s"
      ],
      [
        "i",
        "g"
      ],
      [
        "Ġh",
        "a"
      ],
      [
        "Ġ",
        "d"
      ],
      [
        "t",
        "or"
      ],
      [
        "Ġ",
        "S"
      ],
      [
        "u",
        "s"
      ],
      [
        "is",
        "mo"
      ],
      [
        "Ġco",
        "mo"
      ],
      [
        "Ġ",
        "1"
      ],
      [
        "t",
        "en"
      ],
      [
        "e",
        "l"
      ],
      [
        "Ġf",
        "ilosofÃŃa"
      ],
      [
        "Ġ",
        "C"
      ],
      [
        "Ġe",
        "x"
      ],
      [
        "q",
        "u"
      ],
      [
        "Ġ",
        "to"
      ],
      [
        "i",
        "a"
      ],
      [
        "Ġde",
        "s"
      ],
      [
        "Ġs",
        "o"
      ],
      [
        "t",
        "os"
      ],
      [
        "i",
        "z"
      ],
      [
        "Ġc",
        "u"
      ],
      [
        "Ġl",
        "o"
      ],
      [
        "Ġ",
        "tra"
      ],
      [
        "c",
        "u"
      ],
      [
        "Ġ",
        "te"
      ],
      [
        "is",
        "ta"
      ],
      [
        "m",
        "b"
      ],
      [
        "c",
        "e"
      ],
      [
        "Ġ",
        "P"
      ],
      [
        "ib",
        "er"
      ],
      [
        "Ġ",
        "M"
      ],
      [
        "Ã¡",
        "s"
      ],
      [
        ".",
        "."
      ],
      [
        "o",
        "g"
      ],
      [
        "en",
        "s"
      ],
      [
        "a",
        "b"
      ],
      [
        "f",
        "i"
      ],
      [
        "ica",
        "n"
      ],
      [
        "Ġpar",
        "a"
      ],
      [
        "cion",
        "es"
      ],
      [
        "Ã",
        "º"
      ],
      [
        "ĠL",
        "a"
      ],
      [
        "t",
        "r"
      ],
      [
        "Ġ",
        "b"
      ],
      [
        "Ġes",
        "ta"
      ],
      [
        "ien",
        "to"
      ],
      [
        "Ġl",
        "iber"
      ],
      [
        "Ġa",
        "n"
      ],
      [
        "âĢĿ",
        ","
      ],
      [
        "Ġ",
        "di"
      ],
      [
        "t",
        "ar"
      ],
      [
        "ta",
        "n"
      ],
      [
        "er",
        "ican"
      ],
      [
        "l",
        "a"
      ],
      [
        "Ġp",
        "o"
      ],
      [
        "Ġ",
        "("
      ],
      [
        "tin",
        "o"
      ],
      [
        "v",
        "a"
      ],
      [
        "ta",
        "l"
      ],
      [
        "âĢĿ",
        "."
      ],
      [
        "u",
        "es"
      ],
      [
        "i",
        "o"
      ],
      [
        "i",
        "Ã³n"
      ],
      [
        "g",
        "en"
      ],
      [
        "t",
        "es"
      ],
      [
        "Ġp",
        "er"
      ],
      [
        "t",
        "ro"
      ],
      [
        "ol",
        "og"
      ],
      [
        "Ġ",
        "D"
      ],
      [
        "c",
        "h"
      ],
      [
        "Ã³",
        "g"
      ],
      [
        "Ġs",
        "er"
      ],
      [
        "ci",
        "en"
      ],
      [
        "am",
        "erican"
      ],
      [
        "Ġm",
        "Ã¡s"
      ],
      [
        "de",
        "n"
      ],
      [
        "olog",
        "ÃŃa"
      ],
      [
        "Ġ",
        "i"
      ],
      [
        "s",
        "e"
      ],
      [
        "d",
        "os"
      ],
      [
        "Ġm",
        "o"
      ],
      [
        "tino",
        "american"
      ],
      [
        "Ġ",
        "I"
      ],
      [
        "a",
        "da"
      ],
      [
        "Ġh",
        "is"
      ],
      [
        "Ġd",
        "is"
      ],
      [
        "er",
        "a"
      ],
      [
        "Ġ1",
        "9"
      ],
      [
        "m",
        "in"
      ],
      [
        "Ġp",
        "ens"
      ],
      [
        "ci",
        "al"
      ],
      [
        "Ġs",
        "i"
      ],
      [
        "Ã©",
        "r"
      ],
      [
        "Ġliber",
        "aciÃ³n"
      ],
      [
        "g",
        "o"
      ],
      [
        "Ġcon",
        "s"
      ],
      [
        "b",
        "le"
      ],
      [
        "Ġp",
        "os"
      ],
      [
        "ĠE",
        "s"
      ],
      [
        "i",
        "v"
      ],
      [
        "Ġm",
        "e"
      ],
      [
        "tu",
        "ra"
      ],
      [
        "Ġin",
        "ter"
      ],
      [
        "Ġla",
        "tinoamerican"
      ],
      [
        "Ġex",
        "p"
      ],
      [
        "i",
        "co"
      ],
      [
        "Ġp",
        "ue"
      ],
      [
        "ÃŃ",
        "tica"
      ],
      [
        "Ġs",
        "in"
      ],
      [
        "ar",
        "a"
      ],
      [
        "Ġ",
        "ide"
      ],
      [
        "g",
        "un"
      ],
      [
        "f",
        "ica"
      ],
      [
        "Ġ",
        "F"
      ],
      [
        "Ġp",
        "re"
      ],
      [
        "Ã",
        "±"
      ],
      [
        "Ġ",
        "H"
      ],
      [
        "Ġa",
        "c"
      ],
      [
        "a",
        "do"
      ],
      [
        "Ġes",
        "te"
      ],
      [
        "d",
        "u"
      ],
      [
        "v",
        "i"
      ],
      [
        "b",
        "a"
      ],
      [
        "Ġc",
        "r"
      ],
      [
        "Ġa",
        "p"
      ],
      [
        "ĠE",
        "n"
      ],
      [
        "m",
        "i"
      ],
      [
        "Ġp",
        "ol"
      ],
      [
        "b",
        "re"
      ],
      [
        "Ġp",
        "p"
      ],
      [
        "Ġre",
        "al"
      ],
      [
        "cion",
        "al"
      ],
      [
        "m",
        "an"
      ],
      [
        "p",
        "ul"
      ],
      [
        "ti",
        "co"
      ],
      [
        "t",
        "re"
      ],
      [
        "Ġi",
        "mp"
      ],
      [
        "Ġ",
        "R"
      ],
      [
        "Ġ",
        "B"
      ],
      [
        "Ã³g",
        "ica"
      ],
      [
        "d",
        "or"
      ],
      [
        "j",
        "e"
      ],
      [
        "ĠE",
        "l"
      ],
      [
        "Ġ",
        "g"
      ],
      [
        "Ġpro",
        "p"
      ],
      [
        "..",
        "."
      ],
      [
        "ar",
        "x"
      ],
      [
        "Ã©",
        "n"
      ],
      [
        "c",
        "on"
      ],
      [
        "e",
        "g"
      ],
      [
        "m",
        "os"
      ],
      [
        "t",
        "Ã³"
      ],
      [
        "Ġ",
        "2"
      ],
      [
        "Ġa",
        "s"
      ],
      [
        "v",
        "o"
      ],
      [
        "am",
        "iento"
      ],
      [
        "en",
        "te"
      ],
      [
        "Ġo",
        "b"
      ],
      [
        "Ġ",
        "T"
      ],
      [
        "ce",
        "p"
      ],
      [
        "Ġ",
        "res"
      ],
      [
        "Ã¡",
        "n"
      ],
      [
        "s",
        "o"
      ],
      [
        "de",
        "r"
      ],
      [
        "Ġc",
        "a"
      ],
      [
        "c",
        "er"
      ],
      [
        "Ġpo",
        "pul"
      ],
      [
        "Ġ",
        "G"
      ],
      [
        "i",
        "da"
      ],
      [
        "Ġ",
        "N"
      ],
      [
        "Ġm",
        "u"
      ],
      [
        "Ġ",
        "ci"
      ],
      [
        "i",
        "r"
      ],
      [
        "an",
        "te"
      ],
      [
        "de",
        "s"
      ],
      [
        "Ġsu",
        "s"
      ],
      [
        "Ġ",
        "qu"
      ],
      [
        "Ġa",
        "u"
      ],
      [
        "Ġ",
        "ti"
      ],
      [
        "m",
        "iento"
      ],
      [
        "Ġ",
        "Ã©"
      ],
      [
        "Ġc",
        "l"
      ],
      [
        "Ġ19",
        "7"
      ],
      [
        "c",
        "es"
      ],
      [
        "Ġ",
        "t"
      ],
      [
        "Ġo",
        "p"
      ],
      [
        "Ġre",
        "f"
      ],
      [
        "Ġhis",
        "tor"
      ],
      [
        "or",
        "ÃŃa"
      ],
      [
        "ta",
        "s"
      ],
      [
        "Ġp",
        "ri"
      ],
      [
        "en",
        "cia"
      ],
      [
        "ci",
        "s"
      ],
      [
        "Ġso",
        "bre"
      ],
      [
        "Ġpro",
        "ble"
      ],
      [
        "an",
        "do"
      ],
      [
        "Ã©r",
        "ica"
      ],
      [
        "er",
        "s"
      ],
      [
        "Ġm",
        "is"
      ],
      [
        "tu",
        "al"
      ],
      [
        "l",
        "i"
      ],
      [
        "Ġco",
        "mp"
      ],
      [
        "Ġf",
        "un"
      ],
      [
        "Ġlatinoamerican",
        "a"
      ],
      [
        "g",
        "u"
      ],
      [
        "ti",
        "va"
      ],
      [
        "ĠA",
        "m"
      ],
      [
        "Ġso",
        "cial"
      ],
      [
        "c",
        "l"
      ],
      [
        "l",
        "os"
      ],
      [
        "i",
        "os"
      ],
      [
        "Ġ",
        "j"
      ],
      [
        "Ġpar",
        "ti"
      ],
      [
        "cu",
        "r"
      ],
      [
        "c",
        "ar"
      ],
      [
        "er",
        "o"
      ],
      [
        "Ġ",
        "tan"
      ],
      [
        "Ãº",
        "n"
      ],
      [
        "Ġes",
        "p"
      ],
      [
        "ra",
        "n"
      ],
      [
        "i",
        "er"
      ],
      [
        "us",
        "s"
      ],
      [
        "Ġen",
        "tre"
      ],
      [
        "Ġes",
        "t"
      ],
      [
        "z",
        "a"
      ],
      [
        "ti",
        "tu"
      ],
      [
        "te",
        "g"
      ],
      [
        "Ġs",
        "ig"
      ],
      [
        "Ġa",
        "r"
      ],
      [
        "Ġpens",
        "amiento"
      ],
      [
        "es",
        "ti"
      ],
      [
        "tin",
        "a"
      ],
      [
        "n",
        "a"
      ],
      [
        "en",
        "den"
      ],
      [
        "ÃŃ",
        "s"
      ],
      [
        "p",
        "o"
      ],
      [
        "l",
        "ica"
      ],
      [
        "e",
        "a"
      ],
      [
        "Ġto",
        "da"
      ],
      [
        "ba",
        "j"
      ],
      [
        "Ġto",
        "do"
      ],
      [
        "Ġm",
        "ismo"
      ],
      [
        "ilos",
        "Ã³"
      ],
      [
        "ĠAm",
        "Ã©rica"
      ],
      [
        "Ġ",
        "or"
      ],
      [
        "Ġp",
        "l"
      ],
      [
        "ci",
        "as"
      ],
      [
        "Ġsin",
        "o"
      ],
      [
        "Ġn",
        "ues"
      ],
      [
        "or",
        "m"
      ],
      [
        "Ġha",
        "b"
      ],
      [
        "Ġcon",
        "cep"
      ],
      [
        "tr",
        "u"
      ],
      [
        "ta",
        "ciÃ³n"
      ],
      [
        "Ġtra",
        "baj"
      ],
      [
        "Ġm",
        "a"
      ],
      [
        "Ġdes",
        "de"
      ],
      [
        "Ġpri",
        "m"
      ],
      [
        "c",
        "os"
      ],
      [
        "c",
        "ul"
      ],
      [
        "Ġpue",
        "de"
      ],
      [
        "Ã³",
        "s"
      ],
      [
        "Ġsu",
        "p"
      ],
      [
        "ide",
        "m"
      ],
      [
        "cien",
        "cia"
      ],
      [
        "p",
        "ec"
      ],
      [
        "âĢ",
        "Ķ"
      ],
      [
        "Ġn",
        "a"
      ],
      [
        "ci",
        "o"
      ],
      [
        "Ġhis",
        "tÃ³"
      ],
      [
        "Ġdis",
        "cur"
      ],
      [
        "Ġpar",
        "te"
      ],
      [
        "is",
        "te"
      ],
      [
        "Ġf",
        "ilosÃ³"
      ],
      [
        "mb",
        "re"
      ],
      [
        "b",
        "e"
      ],
      [
        "Ġ",
        "ra"
      ],
      [
        "c",
        "tor"
      ],
      [
        "en",
        "ti"
      ],
      [
        "i",
        "on"
      ],
      [
        "Ġ",
        "u"
      ],
      [
        "Ġhistor",
        "ia"
      ],
      [
        "men",
        "to"
      ],
      [
        "c",
        "ciÃ³n"
      ],
      [
        "c",
        "tica"
      ],
      [
        "Ã³",
        "lo"
      ],
      [
        "Ġme",
        "di"
      ],
      [
        "uss",
        "el"
      ],
      [
        "un",
        "to"
      ],
      [
        "en",
        "os"
      ],
      [
        "Ġm",
        "arx"
      ],
      [
        "r",
        "ica"
      ],
      [
        "ĠA",
        "r"
      ],
      [
        "r",
        "Ã¡"
      ],
      [
        "Ġpos",
        "ib"
      ],
      [
        "Ġ",
        "O"
      ],
      [
        "Ġh",
        "o"
      ],
      [
        "Â",
        "¿"
      ],
      [
        "qu",
        "ÃŃ"
      ],
      [
        "a",
        "dor"
      ],
      [
        "Ġtra",
        "ta"
      ],
      [
        "i",
        "ciÃ³n"
      ],
      [
        "r",
        "al"
      ],
      [
        "on",
        "e"
      ],
      [
        "or",
        "a"
      ],
      [
        "ec",
        "es"
      ],
      [
        "Ġpol",
        "ÃŃtica"
      ],
      [
        ")",
        "."
      ],
      [
        "Ġp",
        "res"
      ],
      [
        "Ġa",
        "b"
      ],
      [
        "ol",
        "u"
      ],
      [
        "Ġre",
        "v"
      ],
      [
        "i",
        "or"
      ],
      [
        "Ġcu",
        "al"
      ],
      [
        "ĠD",
        "ussel"
      ],
      [
        "Ġ",
        "U"
      ],
      [
        "n",
        "o"
      ],
      [
        "Ġ",
        "["
      ],
      [
        "r",
        "en"
      ],
      [
        "ĠI",
        "b"
      ],
      [
        "e",
        "dad"
      ],
      [
        "Ġde",
        "p"
      ],
      [
        "Ġsu",
        "b"
      ],
      [
        "enden",
        "cia"
      ],
      [
        "ĠIb",
        "idem"
      ],
      [
        "m",
        "e"
      ],
      [
        "r",
        "u"
      ],
      [
        "ĠS",
        "e"
      ],
      [
        "L",
        "a"
      ],
      [
        "Ġs",
        "on"
      ],
      [
        "Ġc",
        "ul"
      ],
      [
        "Ġest",
        "Ã¡"
      ],
      [
        "ca",
        "n"
      ],
      [
        "Ġy",
        "a"
      ],
      [
        "Ġproble",
        "ma"
      ],
      [
        "Ġl",
        "u"
      ],
      [
        "Ġdiscur",
        "so"
      ],
      [
        "i",
        "al"
      ],
      [
        "i",
        "Ã©n"
      ],
      [
        "Ġs",
        "enti"
      ],
      [
        "ro",
        "l"
      ],
      [
        "c",
        "ri"
      ],
      [
        "ci",
        "r"
      ],
      [
        "ti",
        "v"
      ],
      [
        "Ġpens",
        "ar"
      ],
      [
        "ar",
        "rol"
      ],
      [
        "b",
        "lo"
      ],
      [
        "Ġal",
        "gun"
      ],
      [
        "tr",
        "os"
      ],
      [
        ")",
        ","
      ],
      [
        "e",
        "mp"
      ],
      [
        "ar",
        "io"
      ],
      [
        "Ġv",
        "er"
      ],
      [
        "Ġc",
        "as"
      ],
      [
        "da",
        "s"
      ],
      [
        "Ã¡",
        "l"
      ],
      [
        "u",
        "er"
      ],
      [
        "Ã³g",
        "ico"
      ],
      [
        "tu",
        "ral"
      ],
      [
        "p",
        "a"
      ],
      [
        "p",
        "re"
      ],
      [
        "z",
        "ar"
      ],
      [
        "Ġ",
        "do"
      ],
      [
        "Ġtan",
        "to"
      ],
      [
        "Ġm",
        "an"
      ],
      [
        "Ġn",
        "ue"
      ],
      [
        "m",
        "as"
      ],
      [
        "Ġ",
        "3"
      ],
      [
        "Ġte",
        "ologÃŃa"
      ],
      [
        "is",
        "ti"
      ],
      [
        "fi",
        "r"
      ],
      [
        "Ġb",
        "ien"
      ],
      [
        "Ġl",
        "e"
      ],
      [
        "Ġp",
        "as"
      ],
      [
        "ÃŃ",
        "tico"
      ],
      [
        "ri",
        "co"
      ],
      [
        "Ġcu",
        "esti"
      ],
      [
        "Ġcons",
        "ide"
      ],
      [
        "Ġreal",
        "idad"
      ],
      [
        "Ġc",
        "am"
      ],
      [
        "ista",
        "s"
      ],
      [
        "Ġsenti",
        "do"
      ],
      [
        "un",
        "do"
      ],
      [
        "x",
        "is"
      ],
      [
        "Ġ",
        "da"
      ],
      [
        "Ġso",
        "ci"
      ],
      [
        "r",
        "ÃŃa"
      ],
      [
        "Ġ",
        "J"
      ],
      [
        "ĠP",
        "or"
      ],
      [
        "Ġcr",
        "ÃŃtica"
      ],
      [
        "Ġco",
        "m"
      ],
      [
        "Ġfun",
        "da"
      ],
      [
        "g",
        "ar"
      ],
      [
        "Ġ",
        "ten"
      ],
      [
        "Ġn",
        "eces"
      ],
      [
        "Ġse",
        "ctor"
      ],
      [
        "ol",
        "Ã³gica"
      ],
      [
        "ÃŃ",
        "n"
      ],
      [
        "iv",
        "ers"
      ],
      [
        "l",
        "es"
      ],
      [
        "Ġp",
        "a"
      ],
      [
        "an",
        "o"
      ],
      [
        "Ġmis",
        "ma"
      ],
      [
        "e",
        "o"
      ],
      [
        "Ġau",
        "tor"
      ],
      [
        "i",
        "do"
      ],
      [
        "m",
        "Ã¡"
      ],
      [
        "il",
        "Ã³s"
      ],
      [
        "ilÃ³s",
        "of"
      ],
      [
        "Ġl",
        "le"
      ],
      [
        "E",
        "l"
      ],
      [
        "d",
        "ica"
      ],
      [
        "g",
        "a"
      ],
      [
        "Ġ",
        "cien"
      ],
      [
        "Ġha",
        "y"
      ],
      [
        "Ġ",
        "ta"
      ],
      [
        "ion",
        "es"
      ],
      [
        "Ġcl",
        "as"
      ],
      [
        "ar",
        "se"
      ],
      [
        "on",
        "to"
      ],
      [
        "Ġre",
        "p"
      ],
      [
        "Ġper",
        "o"
      ],
      [
        "ch",
        "a"
      ],
      [
        "Ġre",
        "l"
      ],
      [
        "an",
        "a"
      ],
      [
        "ec",
        "e"
      ],
      [
        "is",
        "is"
      ],
      [
        "Ġn",
        "Ãº"
      ],
      [
        "Ġf",
        "ilÃ³sof"
      ],
      [
        "Ġp",
        "unto"
      ],
      [
        "Ġcon",
        "tra"
      ],
      [
        "l",
        "Ã³gica"
      ],
      [
        "Ġa",
        "quÃŃ"
      ],
      [
        "Ġ",
        "Â¿"
      ],
      [
        "ta",
        "do"
      ],
      [
        "Ġpor",
        "que"
      ],
      [
        "Ãº",
        "l"
      ],
      [
        "ĠR",
        "o"
      ],
      [
        "ĠnÃº",
        "m"
      ],
      [
        "en",
        "e"
      ],
      [
        "Ġin",
        "s"
      ],
      [
        "Ġho",
        "mbre"
      ],
      [
        "Ġdep",
        "endencia"
      ],
      [
        "v",
        "e"
      ],
      [
        "to",
        "do"
      ],
      [
        "ra",
        "xis"
      ],
      [
        "Ġo",
        "tra"
      ],
      [
        "fi",
        "co"
      ],
      [
        "Ġinter",
        "pre"
      ],
      [
        "ces",
        "o"
      ],
      [
        "al",
        "Ã©"
      ],
      [
        "al",
        "iz"
      ],
      [
        "tru",
        "c"
      ],
      [
        "Ġa",
        "fir"
      ],
      [
        "Ġte",
        "x"
      ],
      [
        "...",
        "]"
      ],
      [
        "Ġs",
        "Ã³lo"
      ],
      [
        "ti",
        "vo"
      ],
      [
        "lo",
        "g"
      ],
      [
        "Ġtrabaj",
        "o"
      ],
      [
        "Ġide",
        "ologÃŃa"
      ],
      [
        "Ãºl",
        "ti"
      ],
      [
        "ĠC",
        "on"
      ],
      [
        "Ġexp",
        "res"
      ],
      [
        "Ġci",
        "er"
      ],
      [
        "m",
        "ar"
      ],
      [
        "v",
        "er"
      ],
      [
        "Ġa",
        "Ã±"
      ],
      [
        "le",
        "c"
      ],
      [
        "Ġca",
        "p"
      ],
      [
        "ĠN",
        "o"
      ],
      [
        "i",
        "to"
      ],
      [
        "Ġ",
        "V"
      ],
      [
        "Ġ",
        "Y"
      ],
      [
        "Ġ",
        "ter"
      ],
      [
        "Ġ",
        "gen"
      ],
      [
        "Ġp",
        "u"
      ],
      [
        "Ġmu",
        "y"
      ],
      [
        "Ġde",
        "cir"
      ],
      [
        "Ã©",
        "s"
      ],
      [
        "Ġin",
        "te"
      ],
      [
        "n",
        "i"
      ],
      [
        "ta",
        "mente"
      ],
      [
        "Ġdes",
        "arrol"
      ],
      [
        "Ġde",
        "be"
      ],
      [
        "âĢ",
        "Ļ"
      ],
      [
        "Ġn",
        "i"
      ],
      [
        "le",
        "x"
      ],
      [
        "f",
        "in"
      ],
      [
        "e",
        "z"
      ],
      [
        "en",
        "ta"
      ],
      [
        "Ġpro",
        "du"
      ],
      [
        "Ġcr",
        "isti"
      ],
      [
        "Ġnues",
        "tra"
      ],
      [
        "Ã¡l",
        "isis"
      ],
      [
        "r",
        "g"
      ],
      [
        "Ġf",
        "ilosof"
      ],
      [
        "ec",
        "h"
      ],
      [
        "ĠA",
        "l"
      ],
      [
        "Ġdi",
        "f"
      ],
      [
        "ue",
        "l"
      ],
      [
        "Ġes",
        "to"
      ],
      [
        "il",
        "idad"
      ],
      [
        "Ġd",
        "os"
      ],
      [
        "c",
        "re"
      ],
      [
        "i",
        "e"
      ],
      [
        "ien",
        "do"
      ],
      [
        "Ġh",
        "u"
      ],
      [
        "ter",
        "ior"
      ],
      [
        "Ġlatinoamerican",
        "o"
      ],
      [
        "Ġconcep",
        "to"
      ],
      [
        "men",
        "tos"
      ],
      [
        "Ġpro",
        "ceso"
      ],
      [
        "ĠLa",
        "tina"
      ],
      [
        "Ġ",
        "onto"
      ],
      [
        "iz",
        "aciÃ³n"
      ],
      [
        "Ġap",
        "ar"
      ],
      [
        "je",
        "to"
      ],
      [
        "m",
        "ica"
      ],
      [
        "ci",
        "p"
      ],
      [
        "Ġta",
        "mb"
      ],
      [
        "l",
        "ar"
      ],
      [
        "o",
        "ci"
      ],
      [
        "t",
        "ÃŃ"
      ],
      [
        "Ġa",
        "d"
      ],
      [
        "on",
        "de"
      ],
      [
        "a",
        "mente"
      ],
      [
        "g",
        "Ãºn"
      ],
      [
        "Ġan",
        "Ã¡lisis"
      ],
      [
        "Ġpopul",
        "ista"
      ],
      [
        "Ġref",
        "lex"
      ],
      [
        "c",
        "ter"
      ],
      [
        "as",
        "ta"
      ],
      [
        "Ġto",
        "tal"
      ],
      [
        "Ġdis",
        "tin"
      ],
      [
        "lec",
        "tual"
      ],
      [
        "Ġtamb",
        "iÃ©n"
      ],
      [
        "Ġ",
        "Ãºlti"
      ],
      [
        "ĠâĢ",
        "ĺ"
      ],
      [
        "Ġcon",
        "ciencia"
      ],
      [
        "Ġmo",
        "do"
      ],
      [
        "E",
        "n"
      ],
      [
        "Ġde",
        "n"
      ],
      [
        "Ġesp",
        "e"
      ],
      [
        "z",
        "o"
      ],
      [
        "Ġ",
        "tal"
      ],
      [
        "Ġp",
        "r"
      ],
      [
        "tu",
        "di"
      ],
      [
        "gen",
        "tina"
      ],
      [
        "Ġcons",
        "titu"
      ],
      [
        "ĠF",
        "ilosofÃŃa"
      ],
      [
        "ĠfilosÃ³",
        "fica"
      ],
      [
        "Ġna",
        "cional"
      ],
      [
        "E",
        "s"
      ],
      [
        "l",
        "ÃŃ"
      ],
      [
        "Ġp",
        "raxis"
      ],
      [
        "ĠS",
        "al"
      ],
      [
        "mÃ¡",
        "tica"
      ],
      [
        "Ġfilosof",
        "ar"
      ],
      [
        "Ġc",
        "re"
      ],
      [
        "Ġes",
        "truc"
      ],
      [
        "Ġesta",
        "s"
      ],
      [
        "Ġmu",
        "ch"
      ],
      [
        "Ġconside",
        "ra"
      ],
      [
        "log",
        "ÃŃa"
      ],
      [
        "en",
        "do"
      ],
      [
        "Ġf",
        "orm"
      ],
      [
        "Ã©r",
        "min"
      ],
      [
        "iv",
        "el"
      ],
      [
        "Ġt",
        "Ã©rmin"
      ],
      [
        "ec",
        "tor"
      ],
      [
        "Ġinter",
        "es"
      ],
      [
        "Ġinte",
        "lectual"
      ],
      [
        "b",
        "er"
      ],
      [
        "Ã",
        "¼"
      ],
      [
        "Ġc",
        "or"
      ],
      [
        "Ġ[",
        "...]"
      ],
      [
        "u",
        "enos"
      ],
      [
        "ci",
        "dad"
      ],
      [
        "Ġa",
        "mb"
      ],
      [
        "Ġn",
        "ivel"
      ],
      [
        "ĠA",
        "i"
      ],
      [
        "Ġsi",
        "tu"
      ],
      [
        "ĠhistÃ³",
        "rica"
      ],
      [
        ".",
        ","
      ],
      [
        "n",
        "s"
      ],
      [
        "Ġha",
        "ce"
      ],
      [
        "ĠD",
        "e"
      ],
      [
        "Ġmo",
        "mento"
      ],
      [
        "Ġpue",
        "blo"
      ],
      [
        "Ġcuesti",
        "Ã³n"
      ],
      [
        "alÃ©",
        "ctica"
      ],
      [
        "ĠAi",
        "res"
      ],
      [
        "iz",
        "a"
      ],
      [
        "Ġte",
        "orÃŃa"
      ],
      [
        "Ġref",
        "er"
      ],
      [
        "Ġcas",
        "o"
      ],
      [
        "ol",
        "Ã³gico"
      ],
      [
        "Ġin",
        "ten"
      ],
      [
        "u",
        "ro"
      ],
      [
        "Ġn",
        "os"
      ],
      [
        "Ġo",
        "tro"
      ],
      [
        "ada",
        "s"
      ],
      [
        "Ġc",
        "ab"
      ],
      [
        "or",
        "tan"
      ],
      [
        "ra",
        "s"
      ],
      [
        "men",
        "tal"
      ],
      [
        "ien",
        "e"
      ],
      [
        "ab",
        "or"
      ],
      [
        "Ġsig",
        "u"
      ],
      [
        "Ġmarx",
        "ismo"
      ],
      [
        "a",
        "c"
      ],
      [
        "t",
        "on"
      ],
      [
        "ar",
        "ia"
      ],
      [
        "or",
        "ma"
      ],
      [
        "al",
        "ab"
      ],
      [
        "ĠEs",
        "ta"
      ],
      [
        "ĠU",
        "n"
      ],
      [
        "i",
        "ma"
      ],
      [
        "i",
        "tal"
      ],
      [
        "iste",
        "ma"
      ],
      [
        "Ġno",
        "ciÃ³n"
      ],
      [
        "Ġv",
        "al"
      ],
      [
        "Ġha",
        "cer"
      ],
      [
        "Ġper",
        "mi"
      ],
      [
        "Ġti",
        "ene"
      ],
      [
        "Ġparti",
        "r"
      ],
      [
        "ĠO",
        "r"
      ],
      [
        "Ġrel",
        "aciÃ³n"
      ],
      [
        "en",
        "tes"
      ],
      [
        "Ġc",
        "ol"
      ],
      [
        "ta",
        "d"
      ],
      [
        "Ġe",
        "mb"
      ],
      [
        "is",
        "ten"
      ],
      [
        "Ġpre",
        "ten"
      ],
      [
        "Ġor",
        "ig"
      ],
      [
        "ĠhistÃ³",
        "rico"
      ],
      [
        "Ġrev",
        "olu"
      ],
      [
        "ru",
        "p"
      ],
      [
        "Ġcul",
        "tura"
      ],
      [
        "Ġ",
        "K"
      ],
      [
        "Ġs",
        "ÃŃ"
      ],
      [
        "que",
        "l"
      ],
      [
        "h",
        "ora"
      ],
      [
        "Ġpl",
        "ante"
      ],
      [
        "ĠRo",
        "ig"
      ],
      [
        "v",
        "en"
      ],
      [
        "ar",
        "go"
      ],
      [
        "Ġte",
        "Ã³"
      ],
      [
        "cl",
        "us"
      ],
      [
        "...",
        ","
      ],
      [
        "Ġgen",
        "er"
      ],
      [
        "Ġc",
        "ara"
      ],
      [
        "Ġen",
        "f"
      ],
      [
        "Ġes",
        "tudi"
      ],
      [
        "Ġf",
        "in"
      ],
      [
        "Ġemb",
        "argo"
      ],
      [
        "Ġc",
        "ar"
      ],
      [
        "ĠR",
        "e"
      ],
      [
        "ĠG",
        "u"
      ],
      [
        "âĢĶ",
        "âĢĶ"
      ],
      [
        "ĠfilÃ³sof",
        "o"
      ],
      [
        "g",
        "er"
      ],
      [
        "t",
        "h"
      ],
      [
        "Ġes",
        "tos"
      ],
      [
        "Ġcon",
        "di"
      ],
      [
        "ĠM",
        "Ã©"
      ],
      [
        "Ġpo",
        "d"
      ],
      [
        "ues",
        "ta"
      ],
      [
        "ida",
        "des"
      ],
      [
        "Ġprim",
        "era"
      ],
      [
        "Ġa",
        "quel"
      ],
      [
        "Ġe",
        "con"
      ],
      [
        "Ġes",
        "a"
      ],
      [
        "Ġes",
        "e"
      ],
      [
        "Ġimp",
        "ortan"
      ],
      [
        "Ġlu",
        "gar"
      ],
      [
        "s",
        "er"
      ],
      [
        "Ġh",
        "an"
      ],
      [
        "ĠM",
        "arx"
      ],
      [
        "Ġhu",
        "man"
      ],
      [
        "i",
        "m"
      ],
      [
        "al",
        "es"
      ],
      [
        "Ġse",
        "Ã±"
      ],
      [
        "ĠS",
        "in"
      ],
      [
        "v",
        "an"
      ],
      [
        "in",
        "o"
      ],
      [
        "Ġm",
        "enos"
      ],
      [
        "Ġcon",
        "cre"
      ],
      [
        "Ġo",
        "tros"
      ],
      [
        "a",
        "y"
      ],
      [
        "x",
        "ico"
      ],
      [
        "Ġ",
        "ri"
      ],
      [
        "Ġv",
        "ez"
      ],
      [
        "ĠB",
        "uenos"
      ],
      [
        "Ġj",
        "us"
      ],
      [
        "pec",
        "to"
      ],
      [
        "Ġcara",
        "cter"
      ],
      [
        "v",
        "ÃŃa"
      ],
      [
        "Ġde",
        "fin"
      ],
      [
        "Ġm",
        "ar"
      ],
      [
        "ti",
        "fi"
      ],
      [
        "Ġse",
        "gun"
      ],
      [
        "ĠP",
        "ero"
      ],
      [
        "u",
        "y"
      ],
      [
        "Ġprim",
        "er"
      ],
      [
        "Ġalgun",
        "os"
      ],
      [
        "Ġdo",
        "min"
      ],
      [
        "Ġs",
        "istema"
      ],
      [
        "in",
        "as"
      ],
      [
        "Ġcon",
        "te"
      ],
      [
        "Ġal",
        "ter"
      ],
      [
        "ig",
        "Ã¼"
      ],
      [
        "Ġpol",
        "ÃŃtico"
      ],
      [
        "Ġas",
        "ÃŃ"
      ],
      [
        "Ġres",
        "p"
      ],
      [
        "c",
        "en"
      ],
      [
        "m",
        "er"
      ],
      [
        "Ġc",
        "ri"
      ],
      [
        "ĠâĢ",
        "Ķ"
      ],
      [
        "Ġf",
        "u"
      ],
      [
        "ĠC",
        "ar"
      ],
      [
        "ĠAr",
        "gentina"
      ],
      [
        "Ġsub",
        "s"
      ],
      [
        "Ġn",
        "eg"
      ],
      [
        "an",
        "to"
      ],
      [
        "Ġin",
        "teg"
      ],
      [
        "Ġpro",
        "f"
      ],
      [
        "Ġreflex",
        "iÃ³n"
      ],
      [
        "on",
        "d"
      ],
      [
        "am",
        "b"
      ],
      [
        "Ġdi",
        "v"
      ],
      [
        "Ġpos",
        "i"
      ],
      [
        "eg",
        "el"
      ],
      [
        "Ġob",
        "ra"
      ],
      [
        "ĠfilosÃ³",
        "fico"
      ],
      [
        "Ġcu",
        "ando"
      ],
      [
        "ĠP",
        "ara"
      ],
      [
        "ĠÃ©",
        "s"
      ],
      [
        "ĠMÃ©",
        "xico"
      ],
      [
        "f",
        "ilosofÃŃa"
      ],
      [
        "p",
        "ol"
      ],
      [
        "ti",
        "fica"
      ],
      [
        "Ġcon",
        "f"
      ],
      [
        "Ġh",
        "ech"
      ],
      [
        "Ġto",
        "dos"
      ],
      [
        "Ġposib",
        "le"
      ],
      [
        "Ġsigu",
        "ien"
      ],
      [
        "f",
        "ec"
      ],
      [
        "Ġs",
        "ab"
      ],
      [
        "Ġre",
        "to"
      ],
      [
        "Ġpopul",
        "ismo"
      ],
      [
        "gu",
        "a"
      ],
      [
        "emp",
        "o"
      ],
      [
        "Ġp",
        "alab"
      ],
      [
        "os",
        "iciÃ³n"
      ],
      [
        "Ġs",
        "al"
      ],
      [
        "te",
        "orÃŃa"
      ],
      [
        "Ġm",
        "en"
      ],
      [
        "Ġm",
        "undo"
      ],
      [
        "Ġf",
        "en"
      ],
      [
        "ĠS",
        "an"
      ],
      [
        "cien",
        "te"
      ],
      [
        "Ġma",
        "y"
      ],
      [
        "Ġtex",
        "to"
      ],
      [
        "r",
        "ar"
      ],
      [
        "Ġl",
        "ib"
      ],
      [
        "Ġp",
        "on"
      ],
      [
        "Ġen",
        "cu"
      ],
      [
        "Ġv",
        "ar"
      ],
      [
        "Ġv",
        "ol"
      ],
      [
        "Ġdi",
        "alÃ©ctica"
      ],
      [
        "tes",
        "is"
      ],
      [
        "a",
        "ciones"
      ],
      [
        "r",
        "ente"
      ],
      [
        "Ġf",
        "uer"
      ],
      [
        "iz",
        "ar"
      ],
      [
        "Ġpo",
        "der"
      ],
      [
        "Ġsocial",
        "es"
      ],
      [
        "Ġinterpre",
        "taciÃ³n"
      ],
      [
        "ĠseÃ±",
        "al"
      ],
      [
        "Ġse",
        "a"
      ],
      [
        "Ġd",
        "u"
      ],
      [
        "qu",
        "ier"
      ],
      [
        "Ġtra",
        "ns"
      ],
      [
        "Ġautor",
        "es"
      ],
      [
        "d",
        "ar"
      ],
      [
        "p",
        "ro"
      ],
      [
        "Ġl",
        "l"
      ],
      [
        "Ġh",
        "asta"
      ],
      [
        "ien",
        "tos"
      ],
      [
        "Ġex",
        "isten"
      ],
      [
        "cu",
        "lo"
      ],
      [
        "tr",
        "ar"
      ],
      [
        "Ġper",
        "on"
      ],
      [
        "g",
        "an"
      ],
      [
        "er",
        "te"
      ],
      [
        "iz",
        "Ã¡"
      ],
      [
        "ĠÃ©",
        "tica"
      ],
      [
        "Ġsup",
        "er"
      ],
      [
        "Ġclas",
        "es"
      ],
      [
        "j",
        "o"
      ],
      [
        "Ġ",
        "X"
      ],
      [
        "en",
        "cias"
      ],
      [
        "ra",
        "f"
      ],
      [
        "Ġre",
        "la"
      ],
      [
        "ig",
        "u"
      ],
      [
        "Ġmedi",
        "da"
      ],
      [
        "Ġden",
        "tro"
      ],
      [
        "e",
        "x"
      ],
      [
        "p",
        "ar"
      ],
      [
        "v",
        "iene"
      ],
      [
        "Ġ",
        "tar"
      ],
      [
        "Ã³",
        "mo"
      ],
      [
        "di",
        "ciÃ³n"
      ],
      [
        "ĠA",
        "n"
      ],
      [
        "ĠA",
        "s"
      ],
      [
        "ĠL",
        "o"
      ],
      [
        "Ġcu",
        "anto"
      ],
      [
        "cional",
        "idad"
      ],
      [
        "Ġfun",
        "ciÃ³n"
      ],
      [
        "1",
        "9"
      ],
      [
        "t",
        "ri"
      ],
      [
        "Ġ",
        "4"
      ],
      [
        "ti",
        "z"
      ],
      [
        "re",
        "z"
      ],
      [
        "al",
        "idad"
      ],
      [
        "ĠM",
        "ar"
      ],
      [
        "ĠD",
        "ios"
      ],
      [
        "Ġ2",
        "0"
      ],
      [
        "ĠT",
        "o"
      ],
      [
        "Ġca",
        "teg"
      ],
      [
        "Ġsig",
        "ni"
      ],
      [
        "Ġespe",
        "cial"
      ],
      [
        "y",
        "ec"
      ],
      [
        "Ġe",
        "t"
      ],
      [
        "tu",
        "ro"
      ],
      [
        "Ġpos",
        "iciÃ³n"
      ],
      [
        "Ġau",
        "to"
      ],
      [
        "Ġhistor",
        "i"
      ],
      [
        "Ġmarx",
        "ista"
      ],
      [
        "ivers",
        "idad"
      ],
      [
        "Ġestruc",
        "tura"
      ],
      [
        "uro",
        "p"
      ],
      [
        "Ġorig",
        "in"
      ],
      [
        "n",
        "one"
      ],
      [
        "Ġ",
        "Z"
      ],
      [
        "Ġp",
        "e"
      ],
      [
        "Ġh",
        "e"
      ],
      [
        "Ġb",
        "as"
      ],
      [
        "Ġi",
        "r"
      ],
      [
        "Ġmo",
        "vi"
      ],
      [
        "Ġg",
        "ran"
      ],
      [
        "Ġprop",
        "ia"
      ],
      [
        "Ġar",
        "gen"
      ],
      [
        "Ġtoda",
        "vÃŃa"
      ],
      [
        "rÃ¡",
        "ctica"
      ],
      [
        "can",
        "none"
      ],
      [
        "Ġsubs",
        "ector"
      ],
      [
        "b",
        "lica"
      ],
      [
        "Ġe",
        "urop"
      ],
      [
        "Ġen",
        "ten"
      ],
      [
        "ab",
        "le"
      ],
      [
        "Ġfunda",
        "mental"
      ],
      [
        "a",
        "zar"
      ],
      [
        "en",
        "a"
      ],
      [
        "en",
        "gua"
      ],
      [
        "er",
        "ial"
      ],
      [
        "Ġe",
        "p"
      ],
      [
        "ĠB",
        "ond"
      ],
      [
        "ĠBond",
        "y"
      ],
      [
        "1",
        "0"
      ],
      [
        "g",
        "os"
      ],
      [
        "g",
        "res"
      ],
      [
        "i",
        "as"
      ],
      [
        "Ġ",
        "Ã"
      ],
      [
        "or",
        "es"
      ],
      [
        "Ã©",
        "mica"
      ],
      [
        "di",
        "da"
      ],
      [
        "ter",
        "min"
      ],
      [
        "Ġv",
        "a"
      ],
      [
        "Ġan",
        "aliz"
      ],
      [
        "ĠI",
        "n"
      ],
      [
        "teg",
        "a"
      ],
      [
        "lÃŃ",
        "ci"
      ],
      [
        "Ġsitu",
        "aciÃ³n"
      ],
      [
        "a",
        "dos"
      ],
      [
        "c",
        "or"
      ],
      [
        "s",
        "iÃ³n"
      ],
      [
        "ti",
        "s"
      ],
      [
        "ue",
        "go"
      ],
      [
        "Ġm",
        "i"
      ],
      [
        "Ġel",
        "e"
      ],
      [
        "an",
        "os"
      ],
      [
        "Ġan",
        "te"
      ],
      [
        "Ġqu",
        "Ã©"
      ],
      [
        "cis",
        "mo"
      ],
      [
        "ĠSal",
        "azar"
      ],
      [
        "Ġcab",
        "e"
      ],
      [
        "b",
        "i"
      ],
      [
        "r",
        "os"
      ],
      [
        "v",
        "al"
      ],
      [
        "Ġno",
        "ta"
      ],
      [
        "ĠC",
        "u"
      ],
      [
        "Ġac",
        "titu"
      ],
      [
        "Ġpopul",
        "ar"
      ],
      [
        "ĠÃ©",
        "l"
      ],
      [
        "igÃ¼",
        "edad"
      ],
      [
        "g",
        "ger"
      ],
      [
        "Ġ",
        "Q"
      ],
      [
        "Ġsu",
        "rg"
      ],
      [
        "mp",
        "le"
      ],
      [
        "ide",
        "gger"
      ],
      [
        "us",
        "ch"
      ],
      [
        "ĠOr",
        "tega"
      ],
      [
        "Ġll",
        "am"
      ],
      [
        "Ġin",
        "di"
      ],
      [
        "Ġti",
        "empo"
      ],
      [
        "Ġparti",
        "da"
      ],
      [
        "Ġnue",
        "vo"
      ],
      [
        "Ġrep",
        "res"
      ],
      [
        "p",
        "u"
      ],
      [
        "u",
        "r"
      ],
      [
        "Ġl",
        "engua"
      ],
      [
        "Ġc",
        "en"
      ],
      [
        "Ã³",
        "men"
      ],
      [
        "ti",
        "r"
      ],
      [
        "ta",
        "ciones"
      ],
      [
        "Ġel",
        "lo"
      ],
      [
        "Ġel",
        "abor"
      ],
      [
        "Ġf",
        "e"
      ],
      [
        "Ġf",
        "orma"
      ],
      [
        "Ġv",
        "is"
      ],
      [
        "ĠS",
        "cannone"
      ],
      [
        "ĠaÃ±",
        "os"
      ],
      [
        "ĠÃºlti",
        "mo"
      ],
      [
        "Ġp",
        "rÃ¡ctica"
      ],
      [
        "ue",
        "blo"
      ],
      [
        "Ã¡",
        "g"
      ],
      [
        "Ġac",
        "tual"
      ],
      [
        "Ġnues",
        "tro"
      ],
      [
        "Ġcap",
        "ital"
      ],
      [
        "Ġdif",
        "er"
      ],
      [
        "Ġpod",
        "rÃŃa"
      ],
      [
        "a",
        "u"
      ],
      [
        "Ġ",
        "5"
      ],
      [
        "Ġde",
        "termin"
      ],
      [
        "ÃŃa",
        "n"
      ],
      [
        "Ġf",
        "rente"
      ],
      [
        "Ġin",
        "f"
      ],
      [
        "Ġd",
        "onde"
      ],
      [
        "iber",
        "aciÃ³n"
      ],
      [
        "ĠEs",
        "te"
      ],
      [
        "Ġide",
        "n"
      ],
      [
        "Ġfen",
        "Ã³men"
      ],
      [
        "Ġcateg",
        "orÃŃa"
      ],
      [
        "Ġa",
        "de"
      ],
      [
        "ti",
        "Ã©r"
      ],
      [
        "ÃŃ",
        "tu"
      ],
      [
        "Ġn",
        "in"
      ],
      [
        "Ġse",
        "gÃºn"
      ],
      [
        "Ġan",
        "ti"
      ],
      [
        "Ġide",
        "olÃ³gica"
      ],
      [
        "Ġres",
        "pecto"
      ],
      [
        "Ġnue",
        "va"
      ],
      [
        "Ġcien",
        "cias"
      ],
      [
        "Ġconstitu",
        "y"
      ],
      [
        "tiÃ©r",
        "rez"
      ],
      [
        ".",
        "âĢĿ"
      ],
      [
        "Ġtra",
        "s"
      ],
      [
        "Ġ19",
        "6"
      ],
      [
        "Ġinter",
        "ior"
      ],
      [
        "Ġap",
        "or"
      ],
      [
        "Ġ197",
        "3"
      ],
      [
        "emp",
        "re"
      ],
      [
        "Ġsoci",
        "edad"
      ],
      [
        "Ġhech",
        "o"
      ],
      [
        "Ġsigni",
        "fica"
      ],
      [
        "I",
        "I"
      ],
      [
        "r",
        "ens"
      ],
      [
        "Ġc",
        "os"
      ],
      [
        "Ġa",
        "hora"
      ],
      [
        "ti",
        "l"
      ],
      [
        "Ġf",
        "ue"
      ],
      [
        "Ġre",
        "con"
      ],
      [
        "Ġsu",
        "jeto"
      ],
      [
        "ien",
        "cia"
      ],
      [
        "tan",
        "do"
      ],
      [
        "Ġper",
        "s"
      ],
      [
        "Ġme",
        "todo"
      ],
      [
        "Ġg",
        "ra"
      ],
      [
        "Ġra",
        "dica"
      ],
      [
        "ador",
        "a"
      ],
      [
        "Ġcul",
        "tural"
      ],
      [
        "Ġcom",
        "un"
      ],
      [
        "ĠK",
        "usch"
      ],
      [
        "Ġecon",
        "Ã³"
      ],
      [
        "Ġet",
        "c"
      ],
      [
        "i",
        "va"
      ],
      [
        "l",
        "Ã³gico"
      ],
      [
        "o",
        "cu"
      ],
      [
        "Ġun",
        "o"
      ],
      [
        "Ġh",
        "er"
      ],
      [
        "ĠC",
        "f"
      ],
      [
        "Ġexp",
        "er"
      ],
      [
        "Ġob",
        "ser"
      ],
      [
        "Ġposib",
        "ilidad"
      ],
      [
        "Ġsector",
        "es"
      ],
      [
        "Ġclas",
        "e"
      ],
      [
        "ĠGu",
        "tiÃ©rrez"
      ],
      [
        "Ġlib",
        "ro"
      ],
      [
        "ĠZ",
        "ea"
      ],
      [
        "j",
        "a"
      ],
      [
        "m",
        "ico"
      ],
      [
        "man",
        "n"
      ],
      [
        "Ġas",
        "u"
      ],
      [
        "tiva",
        "mente"
      ],
      [
        "iste",
        "mo"
      ],
      [
        "Ġab",
        "s"
      ],
      [
        "Ġcien",
        "tÃŃ"
      ],
      [
        "oci",
        "miento"
      ],
      [
        "f",
        "ÃŃs"
      ],
      [
        "l",
        "u"
      ],
      [
        "Ġ",
        "ciencia"
      ],
      [
        "Ġc",
        "ada"
      ],
      [
        "un",
        "di"
      ],
      [
        "al",
        "mente"
      ],
      [
        "ĠC",
        "as"
      ],
      [
        "Ġme",
        "ta"
      ],
      [
        "ĠtÃ©rmin",
        "os"
      ],
      [
        "ĠUn",
        "iversidad"
      ],
      [
        "yec",
        "to"
      ],
      [
        "p",
        "or"
      ],
      [
        "in",
        "cip"
      ],
      [
        "am",
        "os"
      ],
      [
        "ĠF",
        "ran"
      ],
      [
        "Ġcl",
        "ar"
      ],
      [
        "Ġpa",
        "ÃŃs"
      ],
      [
        "Ġtar",
        "ea"
      ],
      [
        "f",
        "uer"
      ],
      [
        "l",
        "as"
      ],
      [
        "s",
        "a"
      ],
      [
        "Ġa",
        "m"
      ],
      [
        "Ġes",
        "cri"
      ],
      [
        "Ġun",
        "ivers"
      ],
      [
        "ib",
        "le"
      ],
      [
        "ch",
        "o"
      ],
      [
        "Ġsi",
        "empre"
      ],
      [
        "tiv",
        "idad"
      ],
      [
        "Ġcuesti",
        "on"
      ],
      [
        "ton",
        "ces"
      ],
      [
        "rup",
        "tura"
      ],
      [
        "Ġlengua",
        "je"
      ],
      [
        "rens",
        "iÃ³n"
      ],
      [
        ".",
        ";"
      ],
      [
        "i",
        "cos"
      ],
      [
        "v",
        "il"
      ],
      [
        "Ġde",
        "cis"
      ],
      [
        "Ġl",
        "i"
      ],
      [
        "Ġcon",
        "tin"
      ],
      [
        "Ġin",
        "i"
      ],
      [
        "ig",
        "n"
      ],
      [
        "us",
        "iÃ³n"
      ],
      [
        "Ġser",
        "ÃŃa"
      ],
      [
        "iv",
        "o"
      ],
      [
        "ĠH",
        "e"
      ],
      [
        "ĠaÃ±",
        "o"
      ],
      [
        "Ġ",
        "6"
      ],
      [
        "Ġ",
        "7"
      ],
      [
        "Ġ",
        "Ã¡"
      ],
      [
        "Ġl",
        "ÃŃn"
      ],
      [
        "Ġa",
        "un"
      ],
      [
        "Ġm",
        "Ã©"
      ],
      [
        "Ġin",
        "d"
      ],
      [
        "Ġimp",
        "lica"
      ],
      [
        "Ġt",
        "res"
      ],
      [
        "Ġcomp",
        "le"
      ],
      [
        "Ġep",
        "istemo"
      ],
      [
        "e",
        "ci"
      ],
      [
        "n",
        "os"
      ],
      [
        "p",
        "er"
      ],
      [
        "âĢ",
        "¢"
      ],
      [
        "un",
        "da"
      ],
      [
        "Ġen",
        "tonces"
      ],
      [
        "Ġes",
        "o"
      ],
      [
        "Ġes",
        "fuer"
      ],
      [
        "Ġel",
        "la"
      ],
      [
        "mp",
        "or"
      ],
      [
        "Ġpres",
        "ente"
      ],
      [
        "Ġlu",
        "cha"
      ],
      [
        "Ġpr",
        "incip"
      ],
      [
        "Ġv",
        "ida"
      ],
      [
        "ĠM",
        "undo"
      ],
      [
        "ues",
        "to"
      ],
      [
        "Ġpre",
        "cis"
      ],
      [
        "Ġpre",
        "ocu"
      ],
      [
        "Ġman",
        "i"
      ],
      [
        "Ġsoci",
        "ologÃŃa"
      ],
      [
        "ima",
        "gen"
      ],
      [
        "ĠX",
        "X"
      ],
      [
        "Ġactitu",
        "d"
      ],
      [
        "o",
        "p"
      ],
      [
        "s",
        "u"
      ],
      [
        "Ġa",
        "ca"
      ],
      [
        "Ġa",
        "van"
      ],
      [
        "ta",
        "da"
      ],
      [
        "to",
        "p"
      ],
      [
        "Ġha",
        "cia"
      ],
      [
        "tro",
        "p"
      ],
      [
        "Ġcas",
        "i"
      ],
      [
        "Ġrevolu",
        "cion"
      ],
      [
        "Ġencu",
        "en"
      ],
      [
        "Ġperon",
        "ismo"
      ],
      [
        "ÃŃtu",
        "lo"
      ],
      [
        "h",
        "is"
      ],
      [
        "ĠL",
        "e"
      ],
      [
        "ĠL",
        "os"
      ],
      [
        "Ġcl",
        "ara"
      ],
      [
        "Ġver",
        "dad"
      ],
      [
        "Ġsab",
        "er"
      ],
      [
        "Ġmay",
        "or"
      ],
      [
        "ĠfenÃ³men",
        "o"
      ],
      [
        "Ġexper",
        "iencia"
      ],
      [
        "j",
        "or"
      ],
      [
        "Ġc",
        "Ã³mo"
      ],
      [
        "an",
        "tes"
      ],
      [
        "Ġto",
        "ma"
      ],
      [
        "Ġsi",
        "do"
      ],
      [
        "Ġpue",
        "den"
      ],
      [
        "Ġide",
        "olÃ³gico"
      ],
      [
        "Ã±",
        "o"
      ],
      [
        "Ġtrabaj",
        "os"
      ],
      [
        "Ġneces",
        "idad"
      ],
      [
        "Ġter",
        "min"
      ],
      [
        "Ġconsidera",
        "ciÃ³n"
      ],
      [
        "Ġpermi",
        "te"
      ],
      [
        "N",
        "o"
      ],
      [
        "c",
        "ÃŃa"
      ],
      [
        "p",
        "el"
      ],
      [
        "ÃŃa",
        "s"
      ],
      [
        "ri",
        "mi"
      ],
      [
        "Ġexp",
        "lÃŃci"
      ],
      [
        "Ġti",
        "po"
      ],
      [
        "Ġj",
        "u"
      ],
      [
        "c",
        "to"
      ],
      [
        "m",
        "is"
      ],
      [
        "Ġa",
        "cep"
      ],
      [
        "da",
        "des"
      ],
      [
        "ec",
        "tura"
      ],
      [
        "ĠC",
        "a"
      ],
      [
        "qu",
        "i"
      ],
      [
        "Ġb",
        "u"
      ],
      [
        "Ġ19",
        "9"
      ],
      [
        "Ġ197",
        "5"
      ],
      [
        "ÃŃs",
        "tica"
      ],
      [
        "Ġotra",
        "s"
      ],
      [
        "Ġafir",
        "ma"
      ],
      [
        "Ġrefer",
        "encia"
      ],
      [
        "clus",
        "o"
      ],
      [
        "amb",
        "iÃ©n"
      ],
      [
        "ĠSan",
        "tos"
      ],
      [
        "Ġtrans",
        "f"
      ],
      [
        "Ġ20",
        "0"
      ],
      [
        "g",
        "ra"
      ],
      [
        "h",
        "e"
      ],
      [
        "i",
        "ana"
      ],
      [
        "p",
        "ueblo"
      ],
      [
        "t",
        "Ã©n"
      ],
      [
        "ti",
        "cos"
      ],
      [
        "ti",
        "cidad"
      ],
      [
        "Ġpar",
        "ece"
      ],
      [
        "ĠM",
        "e"
      ],
      [
        "og",
        "raf"
      ],
      [
        "ĠLa",
        "tinoamerican"
      ],
      [
        "Ġra",
        "cionalidad"
      ],
      [
        "Ġalgun",
        "as"
      ],
      [
        "Ġapar",
        "ece"
      ],
      [
        "ĠtÃ©rmin",
        "o"
      ],
      [
        "l",
        "Ã¡"
      ],
      [
        "m",
        "ientos"
      ],
      [
        "n",
        "te"
      ],
      [
        "on",
        "te"
      ],
      [
        "in",
        "k"
      ],
      [
        "Ġcon",
        "viene"
      ],
      [
        "Ã©",
        "u"
      ],
      [
        "Ġcr",
        "ÃŃtico"
      ],
      [
        "Ġ197",
        "4"
      ],
      [
        "ier",
        "e"
      ],
      [
        "Ġtex",
        "tos"
      ],
      [
        "Ġposi",
        "ciones"
      ],
      [
        "Ġmovi",
        "miento"
      ],
      [
        "ĠHe",
        "idegger"
      ],
      [
        "top",
        "ÃŃa"
      ],
      [
        "c",
        "r"
      ],
      [
        "Ġp",
        "Ã¡g"
      ],
      [
        "Ġe",
        "fec"
      ],
      [
        "al",
        "la"
      ],
      [
        "Ġal",
        "can"
      ],
      [
        "Ġcu",
        "enta"
      ],
      [
        "Ġte",
        "ma"
      ],
      [
        "Ġpo",
        "co"
      ],
      [
        "ĠI",
        "g"
      ],
      [
        "Ġme",
        "jor"
      ],
      [
        "Ġpre",
        "gun"
      ],
      [
        "ĠfilÃ³sof",
        "os"
      ],
      [
        "Ġcontra",
        "di"
      ],
      [
        "Ġafir",
        "m"
      ],
      [
        "Ġmuch",
        "o"
      ],
      [
        "ĠteÃ³",
        "rica"
      ],
      [
        "Ġinteg",
        "ra"
      ],
      [
        "ĠÃ",
        "ī"
      ],
      [
        "fÃŃs",
        "ica"
      ],
      [
        "Ġ",
        "Ãºn"
      ],
      [
        "Ġ",
        "tesis"
      ],
      [
        "Ġf",
        "al"
      ],
      [
        "el",
        "am"
      ],
      [
        "ia",
        "do"
      ],
      [
        "tro",
        "du"
      ],
      [
        "ador",
        "es"
      ],
      [
        "tiv",
        "as"
      ],
      [
        "Ġdesarrol",
        "lo"
      ],
      [
        "Ġprodu",
        "cciÃ³n"
      ],
      [
        "Ġform",
        "ul"
      ],
      [
        "ĠCar",
        "los"
      ],
      [
        "Ġradica",
        "l"
      ],
      [
        "Ġam",
        "erican"
      ],
      [
        "ĠmÃ©",
        "todo"
      ],
      [
        "o",
        "m"
      ],
      [
        "Ġde",
        "no"
      ],
      [
        "er",
        "e"
      ],
      [
        "in",
        "a"
      ],
      [
        "Ġm",
        "os"
      ],
      [
        "Ġel",
        "los"
      ],
      [
        "ues",
        "tra"
      ],
      [
        "Ġas",
        "pec"
      ],
      [
        "Ġob",
        "je"
      ],
      [
        "Ġqu",
        "izÃ¡"
      ],
      [
        "Ġproble",
        "mÃ¡tica"
      ],
      [
        "Ġcomp",
        "ren"
      ],
      [
        "Ġestudi",
        "o"
      ],
      [
        "gres",
        "o"
      ],
      [
        "Ġaspec",
        "tos"
      ],
      [
        "e",
        "as"
      ],
      [
        "h",
        "a"
      ],
      [
        "j",
        "er"
      ],
      [
        "s",
        "mann"
      ],
      [
        "u",
        "m"
      ],
      [
        "Ġl",
        "ectura"
      ],
      [
        "Ġque",
        "da"
      ],
      [
        "il",
        "i"
      ],
      [
        "men",
        "Ã©u"
      ],
      [
        "Ġd",
        "ar"
      ],
      [
        "Ġan",
        "trop"
      ],
      [
        "tan",
        "te"
      ],
      [
        "Ġper",
        "man"
      ],
      [
        "ĠH",
        "egel"
      ],
      [
        "cis",
        "ta"
      ],
      [
        "cl",
        "uy"
      ],
      [
        "ĠAr",
        "turo"
      ],
      [
        "ĠU",
        "na"
      ],
      [
        "Ġcristi",
        "anos"
      ],
      [
        "Ġenf",
        "ren"
      ],
      [
        "mer",
        "t"
      ],
      [
        "Ġmen",
        "cion"
      ],
      [
        "Ġvar",
        "ios"
      ],
      [
        "Ġargen",
        "tino"
      ],
      [
        "ink",
        "elam"
      ],
      [
        "Ġdeno",
        "min"
      ],
      [
        "inkelam",
        "mert"
      ],
      [
        "v",
        "ar"
      ],
      [
        "Ġ",
        "era"
      ],
      [
        "en",
        "de"
      ],
      [
        "ci",
        "l"
      ],
      [
        "Ġe",
        "v"
      ],
      [
        "Ġv",
        "iv"
      ],
      [
        "ĠS",
        "i"
      ],
      [
        "Ġcomp",
        "ro"
      ],
      [
        "Ġcam",
        "b"
      ],
      [
        "Ġamb",
        "igÃ¼edad"
      ],
      [
        "Ġenf",
        "o"
      ],
      [
        "Ġsegun",
        "da"
      ],
      [
        "ĠQ",
        "u"
      ],
      [
        "Ġesfuer",
        "zo"
      ],
      [
        "1",
        "2"
      ],
      [
        "b",
        "ri"
      ],
      [
        "s",
        "i"
      ],
      [
        "Ġl",
        "ÃŃ"
      ],
      [
        "Ġp",
        "es"
      ],
      [
        "Ġs",
        "os"
      ],
      [
        "Ġes",
        "tar"
      ],
      [
        "Ġre",
        "du"
      ],
      [
        "co",
        "mp"
      ],
      [
        "Ġal",
        "lÃ¡"
      ],
      [
        "Ġtra",
        "diciÃ³n"
      ],
      [
        "Ġlatinoamerican",
        "os"
      ],
      [
        "Ġimp",
        "erial"
      ],
      [
        "Ġprop",
        "io"
      ],
      [
        "Ġprop",
        "uesta"
      ],
      [
        "Ġlle",
        "va"
      ],
      [
        "Ġonto",
        "lÃ³gica"
      ],
      [
        "Ġtotal",
        "idad"
      ],
      [
        "Ġcondi",
        "ciones"
      ],
      [
        "Ġpalab",
        "ra"
      ],
      [
        "Ġele",
        "mentos"
      ],
      [
        "ĠpÃ¡g",
        "inas"
      ],
      [
        "m",
        "Ã¡s"
      ],
      [
        "v",
        "ista"
      ],
      [
        "Ġ",
        "9"
      ],
      [
        "il",
        "es"
      ],
      [
        "Ġin",
        "v"
      ],
      [
        "ter",
        "ial"
      ],
      [
        "Ġdes",
        "cu"
      ],
      [
        "ce",
        "den"
      ],
      [
        "ĠH",
        "inkelammert"
      ],
      [
        "...",
        "âĢĿ,"
      ],
      [
        "Ġob",
        "jeto"
      ],
      [
        "ĠN",
        "a"
      ],
      [
        "des",
        "arrol"
      ],
      [
        "Ġtoda",
        "s"
      ],
      [
        "cul",
        "ar"
      ],
      [
        "Ġsup",
        "one"
      ],
      [
        "Ġcual",
        "es"
      ],
      [
        "Ġneces",
        "ario"
      ],
      [
        "Ġrel",
        "ig"
      ],
      [
        "Ġconte",
        "x"
      ],
      [
        "Ġespecial",
        "mente"
      ],
      [
        "Ġher",
        "menÃ©u"
      ],
      [
        "a",
        "t"
      ],
      [
        "e",
        "mbre"
      ],
      [
        "m",
        "arx"
      ],
      [
        "Ġ",
        "8"
      ],
      [
        "er",
        "Ã³n"
      ],
      [
        "Ġla",
        "r"
      ],
      [
        "Ġen",
        "ero"
      ],
      [
        "Ã©",
        "tica"
      ],
      [
        "Ġ1",
        "7"
      ],
      [
        "Ġesta",
        "ble"
      ],
      [
        "Ġan",
        "terior"
      ],
      [
        "Ġi",
        "ma"
      ],
      [
        "Ġmo",
        "mentos"
      ],
      [
        "je",
        "mp"
      ],
      [
        "ĠT",
        "ambiÃ©n"
      ],
      [
        "Ġci",
        "t"
      ],
      [
        "Ġu",
        "topÃŃa"
      ],
      [
        "Ġab",
        "ier"
      ],
      [
        "me",
        "di"
      ],
      [
        "ĠJ",
        "u"
      ],
      [
        "Ġsegun",
        "do"
      ],
      [
        "Ġsiguien",
        "te"
      ],
      [
        "ĠÃ¡",
        "mb"
      ],
      [
        "N",
        "A"
      ],
      [
        "S",
        "e"
      ],
      [
        "b",
        "o"
      ],
      [
        "p",
        "on"
      ],
      [
        "er",
        "se"
      ],
      [
        "Ġe",
        "ta"
      ],
      [
        "Ġn",
        "ada"
      ],
      [
        "di",
        "do"
      ],
      [
        "Ġin",
        "trodu"
      ],
      [
        "Ġco",
        "men"
      ],
      [
        "Ġal",
        "go"
      ],
      [
        "tor",
        "ia"
      ],
      [
        "Ġcu",
        "y"
      ],
      [
        "ĠM",
        "an"
      ],
      [
        "ĠEs",
        "to"
      ],
      [
        "Ġide",
        "as"
      ],
      [
        "Ġpol",
        "Ã©mica"
      ],
      [
        "Ġqu",
        "iere"
      ],
      [
        "Ġmis",
        "mos"
      ],
      [
        "Ġna",
        "tural"
      ],
      [
        "Ġdefin",
        "i"
      ],
      [
        "Ġasu",
        "mi"
      ],
      [
        "ograf",
        "ÃŃa"
      ],
      [
        "ci",
        "den"
      ],
      [
        "Ġs",
        "ol"
      ],
      [
        "Ġh",
        "i"
      ],
      [
        "ri",
        "que"
      ],
      [
        "ter",
        "a"
      ],
      [
        "ec",
        "u"
      ],
      [
        "mp",
        "l"
      ],
      [
        "Ġpro",
        "yecto"
      ],
      [
        "ĠS",
        "er"
      ],
      [
        "ĠP",
        "ro"
      ],
      [
        "Ġser",
        "Ã¡"
      ],
      [
        "Ġexp",
        "li"
      ],
      [
        "Ġexp",
        "lica"
      ],
      [
        "ĠH",
        "ay"
      ],
      [
        "uss",
        "er"
      ],
      [
        "Ġcam",
        "po"
      ],
      [
        "Ġrevolu",
        "ciÃ³n"
      ],
      [
        "Ġfu",
        "era"
      ],
      [
        "ĠAs",
        "smann"
      ],
      [
        "1",
        "3"
      ],
      [
        "Ġ",
        "ruptura"
      ],
      [
        "or",
        "t"
      ],
      [
        "Ġe",
        "jemp"
      ],
      [
        "ca",
        "da"
      ],
      [
        "ten",
        "ido"
      ],
      [
        "Ġex",
        "tra"
      ],
      [
        "ab",
        "a"
      ],
      [
        "Ġan",
        "tes"
      ],
      [
        "Ġor",
        "gan"
      ],
      [
        "ĠSe",
        "gun"
      ],
      [
        "Ġpu",
        "ra"
      ],
      [
        "Ġimportan",
        "cia"
      ],
      [
        "Ġalter",
        "idad"
      ],
      [
        "Ġcontin",
        "u"
      ],
      [
        "ĠJu",
        "an"
      ],
      [
        "C",
        "I"
      ],
      [
        "c",
        "ta"
      ],
      [
        "o",
        "mo"
      ],
      [
        "Ġ",
        "us"
      ],
      [
        "er",
        "r"
      ],
      [
        "Ġse",
        "gu"
      ],
      [
        "ĠL",
        "as"
      ],
      [
        "Ġ1",
        "0"
      ],
      [
        "Ãº",
        "s"
      ],
      [
        "Ġan",
        "al"
      ],
      [
        "Ã±",
        "a"
      ],
      [
        "Ġap",
        "un"
      ],
      [
        "Ġreal",
        "iz"
      ],
      [
        "ĠN",
        "ue"
      ],
      [
        "Ġproble",
        "mas"
      ],
      [
        "Ġor",
        "den"
      ],
      [
        "Ġma",
        "terial"
      ],
      [
        "Ġman",
        "era"
      ],
      [
        "Ġcom",
        "ien"
      ],
      [
        "Ġexpres",
        "iÃ³n"
      ],
      [
        "Ġcier",
        "tos"
      ],
      [
        "Ġconcre",
        "ta"
      ],
      [
        "Ġsiguien",
        "tes"
      ],
      [
        "ĠpaÃŃs",
        "es"
      ],
      [
        "mpor",
        "Ã¡n"
      ],
      [
        "Ġpreocu",
        "p"
      ],
      [
        "Ġencuen",
        "tra"
      ],
      [
        "ĠÃ¡mb",
        "ito"
      ],
      [
        "c",
        "ol"
      ],
      [
        "Ġl",
        "uego"
      ],
      [
        "er",
        "ca"
      ],
      [
        "ÃŃ",
        "r"
      ],
      [
        "un",
        "io"
      ],
      [
        "Ġ1",
        "8"
      ],
      [
        "Ġdes",
        "cri"
      ],
      [
        "ĠP",
        "ar"
      ],
      [
        "dor",
        "a"
      ],
      [
        "Ġpopul",
        "istas"
      ],
      [
        "Ġqu",
        "ien"
      ],
      [
        "Ġref",
        "orm"
      ],
      [
        "Ġest",
        "Ã¡n"
      ],
      [
        "Ġpl",
        "ano"
      ],
      [
        "cul",
        "ta"
      ],
      [
        "Ġrev",
        "el"
      ],
      [
        "ru",
        "po"
      ],
      [
        "tiv",
        "os"
      ],
      [
        "Ġnue",
        "v"
      ],
      [
        "Ġcap",
        "ÃŃtulo"
      ],
      [
        "Ġpu",
        "blica"
      ],
      [
        "Ġonto",
        "logÃŃa"
      ],
      [
        "Ġinteres",
        "ante"
      ],
      [
        "ĠRe",
        "vista"
      ],
      [
        "pu",
        "Ã©s"
      ],
      [
        "ĠcategorÃŃa",
        "s"
      ],
      [
        "Ġcamb",
        "io"
      ],
      [
        "d",
        "iles"
      ],
      [
        "e",
        "mos"
      ],
      [
        "g",
        "ue"
      ],
      [
        "l",
        "an"
      ],
      [
        "l",
        "ig"
      ],
      [
        "l",
        "ante"
      ],
      [
        "t",
        "Ã¡"
      ],
      [
        "u",
        "di"
      ],
      [
        "Ġes",
        "ca"
      ],
      [
        "Ġf",
        "ac"
      ],
      [
        "Ġcon",
        "ocimiento"
      ],
      [
        "ien",
        "te"
      ],
      [
        "Ġex",
        "ig"
      ],
      [
        "Ġdi",
        "men"
      ],
      [
        "eg",
        "Ãºn"
      ],
      [
        "Ġop",
        "rimi"
      ],
      [
        "Ġar",
        "tÃŃ"
      ],
      [
        "Ġcier",
        "to"
      ],
      [
        "Ġreto",
        "mar"
      ],
      [
        "Ġrela",
        "ciones"
      ],
      [
        "Ġnin",
        "gun"
      ],
      [
        "Ġtras",
        "c"
      ],
      [
        "ĠNa",
        "cional"
      ],
      [
        "Ġcontex",
        "to"
      ],
      [
        "c",
        "ra"
      ],
      [
        "c",
        "tico"
      ],
      [
        "p",
        "i"
      ],
      [
        "v",
        "aciÃ³n"
      ],
      [
        "Ã³",
        "r"
      ],
      [
        "ÃŃ",
        "o"
      ],
      [
        "il",
        "idades"
      ],
      [
        "ec",
        "er"
      ],
      [
        "tin",
        "os"
      ],
      [
        "ĠS",
        "u"
      ],
      [
        "fi",
        "ciente"
      ],
      [
        "Ġb",
        "us"
      ],
      [
        "tal",
        "idad"
      ],
      [
        "Ġsi",
        "mple"
      ],
      [
        "Ġreal",
        "iza"
      ],
      [
        "Ġprop",
        "Ã³s"
      ],
      [
        "Ġop",
        "ciÃ³n"
      ],
      [
        "Ġu",
        "til"
      ],
      [
        "Ġpa",
        "pel"
      ],
      [
        "Ġespe",
        "ci"
      ],
      [
        "Ġaquel",
        "los"
      ],
      [
        "Ġimportan",
        "te"
      ],
      [
        "Ġdu",
        "da"
      ],
      [
        "1",
        "8"
      ],
      [
        "f",
        "er"
      ],
      [
        "u",
        "t"
      ],
      [
        "z",
        "Ã³n"
      ],
      [
        "Ġs",
        "a"
      ],
      [
        "is",
        "iÃ³n"
      ],
      [
        "re",
        "l"
      ],
      [
        "Ġ1",
        "5"
      ],
      [
        "Ġte",
        "olÃ³gica"
      ],
      [
        "tar",
        "se"
      ],
      [
        "Ġser",
        "vi"
      ],
      [
        "Ġ19",
        "8"
      ],
      [
        "vi",
        "erte"
      ],
      [
        "Ġimp",
        "os"
      ],
      [
        "Ġ2",
        "5"
      ],
      [
        "Ġres",
        "ul"
      ],
      [
        "Ġcomp",
        "rensiÃ³n"
      ],
      [
        "Ġconcep",
        "tual"
      ],
      [
        "Ġneces",
        "aria"
      ],
      [
        "Ġestruc",
        "tural"
      ],
      [
        "ĠteÃ³",
        "rico"
      ],
      [
        "Ġpers",
        "pec"
      ],
      [
        "Ġafirm",
        "aciÃ³n"
      ],
      [
        "ĠSegun",
        "do"
      ],
      [
        "a",
        "d"
      ],
      [
        "v",
        "ers"
      ],
      [
        "Ġde",
        "j"
      ],
      [
        "ci",
        "do"
      ],
      [
        "Ġm",
        "as"
      ],
      [
        "ues",
        "tos"
      ],
      [
        "Ġmo",
        "de"
      ],
      [
        "Ġpos",
        "terior"
      ],
      [
        "Ġexp",
        "osiciÃ³n"
      ],
      [
        "vi",
        "du"
      ],
      [
        "Ġcomp",
        "ar"
      ],
      [
        "ĠAr",
        "diles"
      ],
      [
        "Ġpres",
        "en"
      ],
      [
        "Ġpres",
        "enta"
      ],
      [
        "Ġcol",
        "on"
      ],
      [
        "Ġdiv",
        "ers"
      ],
      [
        "ĠÃ©s",
        "te"
      ],
      [
        "Ġpalab",
        "ras"
      ],
      [
        "ĠlÃŃn",
        "ea"
      ],
      [
        "Ġaun",
        "que"
      ],
      [
        "Ġclara",
        "mente"
      ],
      [
        "ĠpropÃ³s",
        "ito"
      ],
      [
        "C",
        "A"
      ],
      [
        "g",
        "in"
      ],
      [
        "i",
        "ano"
      ],
      [
        "Ġde",
        "re"
      ],
      [
        "Ġin",
        "cluso"
      ],
      [
        "Ġv",
        "en"
      ],
      [
        "fi",
        "es"
      ],
      [
        "ues",
        "tas"
      ],
      [
        "Ġdis",
        "c"
      ],
      [
        "Ġca",
        "pa"
      ],
      [
        "Ġau",
        "tÃ©n"
      ],
      [
        "Ġ197",
        "2"
      ],
      [
        "Ġpas",
        "ado"
      ],
      [
        "eo",
        "pol"
      ],
      [
        "ĠideologÃŃa",
        "s"
      ],
      [
        "rg",
        "ues"
      ],
      [
        "Ġmuch",
        "os"
      ],
      [
        "Ġintelectual",
        "es"
      ],
      [
        "Ġnivel",
        "es"
      ],
      [
        "Ġdomin",
        "aciÃ³n"
      ],
      [
        "Ġreto",
        "ma"
      ],
      [
        "Ġconstituy",
        "e"
      ],
      [
        "ĠCas",
        "alla"
      ],
      [
        "Ġclar",
        "o"
      ],
      [
        "qui",
        "era"
      ],
      [
        "1",
        "1"
      ],
      [
        "D",
        "E"
      ],
      [
        "m",
        "ul"
      ],
      [
        "p",
        "os"
      ],
      [
        "v",
        "inas"
      ],
      [
        "en",
        "o"
      ],
      [
        "ÃŃ",
        "ticos"
      ],
      [
        "Ġm",
        "or"
      ],
      [
        "an",
        "on"
      ],
      [
        "Ġf",
        "ra"
      ],
      [
        "ĠL",
        "iberaciÃ³n"
      ],
      [
        "Ġ1",
        "3"
      ],
      [
        "Ġliber",
        "tad"
      ],
      [
        "va",
        "ciones"
      ],
      [
        "cien",
        "do"
      ],
      [
        "Ġpue",
        "b"
      ],
      [
        "Ġap",
        "ro"
      ],
      [
        "Ġnues",
        "tros"
      ],
      [
        "Ġhab",
        "er"
      ],
      [
        "Ġinten",
        "to"
      ],
      [
        "tifi",
        "cismo"
      ],
      [
        "ĠeconÃ³",
        "mico"
      ],
      [
        "ĠcientÃŃ",
        "fica"
      ],
      [
        "ĠlÃŃ",
        "mi"
      ],
      [
        "Ġinv",
        "esti"
      ],
      [
        "ÃŃr",
        "culo"
      ],
      [
        "c",
        "n"
      ],
      [
        "n",
        "do"
      ],
      [
        "er",
        "on"
      ],
      [
        "os",
        "Ã©"
      ],
      [
        "Ġen",
        "ti"
      ],
      [
        "al",
        "ismo"
      ],
      [
        "Ġin",
        "cor"
      ],
      [
        "Ġo",
        "f"
      ],
      [
        "Ġv",
        "ista"
      ],
      [
        "Ġdes",
        "puÃ©s"
      ],
      [
        "Ġb",
        "Ã¡s"
      ],
      [
        "Ġcons",
        "tru"
      ],
      [
        "tifi",
        "car"
      ],
      [
        "Ġconte",
        "mporÃ¡n"
      ],
      [
        "om",
        "ÃŃa"
      ],
      [
        "Ġningun",
        "a"
      ],
      [
        "Ġpueb",
        "los"
      ],
      [
        "O",
        "S"
      ],
      [
        "g",
        "aciÃ³n"
      ],
      [
        "s",
        "os"
      ],
      [
        "Ã",
        "ĵ"
      ],
      [
        "Ġde",
        "b"
      ],
      [
        "Ġde",
        "dica"
      ],
      [
        "or",
        "da"
      ],
      [
        "un",
        "cia"
      ],
      [
        "Ġen",
        "con"
      ],
      [
        "Ġf",
        "a"
      ],
      [
        "Ġcon",
        "tenido"
      ],
      [
        "Ġh",
        "egel"
      ],
      [
        "Ġre",
        "i"
      ],
      [
        "tu",
        "d"
      ],
      [
        "le",
        "tar"
      ],
      [
        "ul",
        "tura"
      ],
      [
        "Ġdes",
        "ta"
      ],
      [
        "ĠI",
        "I"
      ],
      [
        "Ġpos",
        "tu"
      ],
      [
        "ĠF",
        "anon"
      ],
      [
        "ida",
        "s"
      ],
      [
        "Ġconcep",
        "ciÃ³n"
      ],
      [
        "Ġprim",
        "ero"
      ],
      [
        "Ġposib",
        "ilidades"
      ],
      [
        "Ġalgun",
        "a"
      ],
      [
        "Ġcam",
        "ino"
      ],
      [
        "ĠCon",
        "greso"
      ],
      [
        "Ġepistemo",
        "lÃ³gica"
      ],
      [
        "Ġtransf",
        "orm"
      ],
      [
        "ĠÃī",
        "s"
      ],
      [
        "Ġdefini",
        "tiva"
      ],
      [
        "Ġpreocup",
        "aciÃ³n"
      ],
      [
        "D",
        "e"
      ],
      [
        "E",
        "R"
      ],
      [
        "P",
        "or"
      ],
      [
        "f",
        "es"
      ],
      [
        "h",
        "er"
      ],
      [
        "i",
        "mo"
      ],
      [
        "l",
        "ara"
      ],
      [
        "en",
        "di"
      ],
      [
        "un",
        "tad"
      ],
      [
        "Ġre",
        "cha"
      ],
      [
        "Ġo",
        "c"
      ],
      [
        "Ġd",
        "Ã©"
      ],
      [
        "Ġto",
        "mar"
      ],
      [
        "ĠD",
        "E"
      ],
      [
        "cial",
        "es"
      ],
      [
        "ble",
        "mente"
      ],
      [
        "Ġop",
        "res"
      ],
      [
        "Ġsig",
        "ue"
      ],
      [
        "na",
        "cional"
      ],
      [
        "Ġhab",
        "rÃŃa"
      ],
      [
        "Ġver",
        "da"
      ],
      [
        "ĠJ",
        "osÃ©"
      ],
      [
        "Ġcom",
        "Ãºn"
      ],
      [
        "Ġten",
        "den"
      ],
      [
        "Ġgener",
        "aciÃ³n"
      ],
      [
        "âĢĶâĢĶ",
        ","
      ],
      [
        "âĢĶâĢĶ",
        "âĢĶâĢĶ,"
      ],
      [
        "Ġalter",
        "na"
      ],
      [
        "tri",
        "b"
      ],
      [
        "Ġanaliz",
        "ar"
      ],
      [
        "Ġrecon",
        "o"
      ],
      [
        "Ġunivers",
        "al"
      ],
      [
        "ĠLe",
        "vinas"
      ],
      [
        "Ġenfo",
        "que"
      ],
      [
        "1",
        "6"
      ],
      [
        "C",
        "u"
      ],
      [
        "c",
        "f"
      ],
      [
        "e",
        "dades"
      ],
      [
        "o",
        "tros"
      ],
      [
        "r",
        "in"
      ],
      [
        "v",
        "ia"
      ],
      [
        "v",
        "Ã©s"
      ],
      [
        "Ġ",
        "ol"
      ],
      [
        "Ġa",
        "ten"
      ],
      [
        "ta",
        "dos"
      ],
      [
        "que",
        "da"
      ],
      [
        "Ġcon",
        "j"
      ],
      [
        "Ã¡",
        "lo"
      ],
      [
        "tra",
        "s"
      ],
      [
        "ec",
        "en"
      ],
      [
        "ĠL",
        "eopol"
      ],
      [
        "ĠfilosofÃŃa",
        "s"
      ],
      [
        "Ġso",
        "cio"
      ],
      [
        "iz",
        "ada"
      ],
      [
        "fi",
        "car"
      ],
      [
        "fi",
        "cos"
      ],
      [
        "ĠD",
        "es"
      ],
      [
        "Ġser",
        "ie"
      ],
      [
        "ĠH",
        "a"
      ],
      [
        "Ġci",
        "r"
      ],
      [
        "Ġparti",
        "cip"
      ],
      [
        "Ã³lo",
        "go"
      ],
      [
        "olu",
        "ciÃ³n"
      ],
      [
        "Ġpas",
        "o"
      ],
      [
        "Ġten",
        "er"
      ],
      [
        "Ġcristi",
        "ana"
      ],
      [
        "th",
        "usser"
      ],
      [
        "Ġjus",
        "tifica"
      ],
      [
        "ĠTo",
        "talidad"
      ],
      [
        "Ġenten",
        "der"
      ],
      [
        "Ġrepres",
        "enta"
      ],
      [
        "Ġaca",
        "d"
      ],
      [
        "Ġcompren",
        "der"
      ],
      [
        "ĠMan",
        "uel"
      ],
      [
        "Ġejemp",
        "lo"
      ],
      [
        "Ãºs",
        "queda"
      ],
      [
        "g",
        "re"
      ],
      [
        "i",
        "mp"
      ],
      [
        "i",
        "cio"
      ],
      [
        "p",
        "endencia"
      ],
      [
        "Ġ",
        "ren"
      ],
      [
        "en",
        "en"
      ],
      [
        "Ġl",
        "Ã³gica"
      ],
      [
        "er",
        "an"
      ],
      [
        "er",
        "cer"
      ],
      [
        "Ġc",
        "ÃŃrculo"
      ],
      [
        "ar",
        "ios"
      ],
      [
        "ti",
        "di"
      ],
      [
        "or",
        "n"
      ],
      [
        "Ġe",
        "d"
      ],
      [
        "ca",
        "do"
      ],
      [
        "is",
        "mos"
      ],
      [
        "al",
        "ista"
      ],
      [
        "ra",
        "y"
      ],
      [
        "as",
        "e"
      ],
      [
        "tu",
        "rel"
      ],
      [
        "Ġin",
        "dica"
      ],
      [
        "am",
        "Ã©rica"
      ],
      [
        "ter",
        "io"
      ],
      [
        "ĠL",
        "A"
      ],
      [
        "ide",
        "ologÃŃa"
      ],
      [
        "Ġ1",
        "4"
      ],
      [
        "ĠC",
        "ro"
      ],
      [
        "gen",
        "es"
      ],
      [
        "Ġmu",
        "erte"
      ],
      [
        "Ġ197",
        "7"
      ],
      [
        "Ġhab",
        "lar"
      ],
      [
        "Ġpas",
        "a"
      ],
      [
        "Ġafir",
        "mar"
      ],
      [
        "ver",
        "tir"
      ],
      [
        "Ġdistin",
        "gu"
      ],
      [
        "Ġval",
        "or"
      ],
      [
        "Ġestudi",
        "os"
      ],
      [
        "Ġcondi",
        "cion"
      ],
      [
        "Ġhuman",
        "a"
      ],
      [
        "Ġresp",
        "on"
      ],
      [
        "ĠÃ©s",
        "ta"
      ],
      [
        "Ġapor",
        "te"
      ],
      [
        "Ġcomun",
        "idad"
      ],
      [
        "Ġabs",
        "olu"
      ],
      [
        "Ġmeta",
        "fÃŃsica"
      ],
      [
        "his",
        "tÃ³"
      ],
      [
        "Ġbu",
        "rgues"
      ],
      [
        "Ġlar",
        "go"
      ],
      [
        "T",
        "I"
      ],
      [
        "b",
        "ica"
      ],
      [
        "d",
        "r"
      ],
      [
        "p",
        "e"
      ],
      [
        "p",
        "ciÃ³n"
      ],
      [
        "p",
        "ara"
      ],
      [
        "u",
        "da"
      ],
      [
        "v",
        "ol"
      ],
      [
        "Â",
        "ª"
      ],
      [
        "Ġp",
        "un"
      ],
      [
        "ci",
        "miento"
      ],
      [
        "âĢ",
        "ľ"
      ],
      [
        "men",
        "ta"
      ],
      [
        "Ġre",
        "fi"
      ],
      [
        "Ġco",
        "tidi"
      ],
      [
        "Ġv",
        "eces"
      ],
      [
        "Ġpro",
        "letar"
      ],
      [
        "iz",
        "ado"
      ],
      [
        "Ġtra",
        "vÃ©s"
      ],
      [
        "mb",
        "res"
      ],
      [
        "ens",
        "a"
      ],
      [
        "Ġb",
        "a"
      ],
      [
        "Ġliber",
        "ador"
      ],
      [
        "Ġdi",
        "re"
      ],
      [
        "dos",
        "e"
      ],
      [
        "Ġcons",
        "ecu"
      ],
      [
        "ĠH",
        "u"
      ],
      [
        "ĠEn",
        "rique"
      ],
      [
        "Ġg",
        "rupo"
      ],
      [
        "eg",
        "a"
      ],
      [
        "Ġhab",
        "ÃŃa"
      ],
      [
        "Ġhab",
        "la"
      ],
      [
        "Ġconside",
        "rar"
      ],
      [
        "Ġfunda",
        "mento"
      ],
      [
        "alÃ©",
        "ctico"
      ],
      [
        "Ġonto",
        "lÃ³gico"
      ],
      [
        "Ġpreten",
        "de"
      ],
      [
        "Ġgener",
        "al"
      ],
      [
        "Ġneg",
        "aciÃ³n"
      ],
      [
        "Ġpon",
        "er"
      ],
      [
        "ĠseÃ±al",
        "ar"
      ],
      [
        "Ġeurop",
        "eo"
      ],
      [
        "Ġsurg",
        "e"
      ],
      [
        "Ġinf",
        "lu"
      ],
      [
        "Ġiden",
        "tifica"
      ],
      [
        "Ġade",
        "lante"
      ],
      [
        "Ġperman",
        "ente"
      ],
      [
        "at",
        "to"
      ],
      [
        "Ġima",
        "gen"
      ],
      [
        "Ġdimen",
        "siÃ³n"
      ],
      [
        "cra",
        "cia"
      ],
      [
        "ĠLeopol",
        "do"
      ],
      [
        "1",
        "7"
      ],
      [
        "C",
        "on"
      ],
      [
        "P",
        "ara"
      ],
      [
        "t",
        "Ã©"
      ],
      [
        "u",
        "ra"
      ],
      [
        "Ã",
        "į"
      ],
      [
        "Ġ",
        "W"
      ],
      [
        "Ġ",
        "tu"
      ],
      [
        "Ġc",
        "la"
      ],
      [
        "Ġe",
        "mp"
      ],
      [
        "Ġe",
        "diciÃ³n"
      ],
      [
        "Ġm",
        "uestra"
      ],
      [
        "ib",
        "li"
      ],
      [
        "ĠS",
        "o"
      ],
      [
        "iz",
        "quier"
      ],
      [
        "Ġdi",
        "ce"
      ],
      [
        "tan",
        "cia"
      ],
      [
        "gen",
        "cia"
      ],
      [
        "Ġide",
        "a"
      ],
      [
        "cl",
        "u"
      ],
      [
        "Ġar",
        "ti"
      ],
      [
        "ĠO",
        "tro"
      ],
      [
        "Ġsub",
        "ray"
      ],
      [
        "Ġlle",
        "g"
      ],
      [
        "Ġdesarrol",
        "la"
      ],
      [
        "Ġcristi",
        "ano"
      ],
      [
        "Ġri",
        "es"
      ],
      [
        "Ġcri",
        "tica"
      ],
      [
        "Ġindi",
        "vidu"
      ],
      [
        "Ġelabor",
        "aciÃ³n"
      ],
      [
        "Ġmetodo",
        "lÃ³gica"
      ],
      [
        "mis",
        "o"
      ],
      [
        "ĠLatinoamerican",
        "a"
      ],
      [
        "Ġev",
        "ide"
      ],
      [
        "Ġreform",
        "ul"
      ],
      [
        "Ġincor",
        "por"
      ],
      [
        "1",
        "5"
      ],
      [
        "2",
        "0"
      ],
      [
        "2",
        "4"
      ],
      [
        "b",
        "ir"
      ],
      [
        "c",
        "era"
      ],
      [
        "c",
        "ara"
      ],
      [
        "g",
        "n"
      ],
      [
        "i",
        "tar"
      ],
      [
        "i",
        "miento"
      ],
      [
        "j",
        "unio"
      ],
      [
        "Ġde",
        "ri"
      ],
      [
        "Ġde",
        "ber"
      ],
      [
        "ci",
        "os"
      ],
      [
        "ti",
        "za"
      ],
      [
[...]
